conv_3_param_0 31.540255 85.104004 26.152405 39.455109 28.308899 60.152508 29.860115 40.898743 50.310856 64.378731 29.568731 58.204082 18.809759 53.820988 66.450882 49.375637
conv_4_param_0 510.265656 244.223053 343.364471 307.510803 237.869110 437.401672 351.414490 531.334900 312.701813 825.643921 284.772919 308.972443 583.697571 575.993896 607.512939 750.241272 223.034698 344.131989 312.591522 465.784729 395.024628 318.640503 333.561310 412.601044 483.111908 421.365204 463.752655 263.276337 577.490356 436.903717 484.738251 604.137512
conv_5_param_0 434.703125 231.613403 241.130432 258.891846 185.917648 246.726685 148.780334 199.000641 281.554016 261.358704 279.545258 232.871628 187.569214 170.109818 249.621674 170.635681 381.746185 358.399780 246.820938 285.350708 285.130524 348.541473 320.644470 190.228928 250.383102 313.472351 136.799194 237.138565 289.914856 270.477844 267.692505 319.512238
conv_6_param_0 84.754860 157.061310 135.465378 142.586594 86.675407 73.412003 58.330853 152.661789
conv_7_param_0 47.231106 66.436104 39.435757 28.662369 59.788910 50.359287 61.120930 54.924076 68.492020 59.908241 55.030056 50.759651 57.137405 70.644318 53.542385 50.856140
conv_8_param_0 421.362823 301.868774 267.194000 395.394989 446.036469 355.794769 285.874542 339.333282 335.504944 243.659042 299.703217 272.248749 397.027191 439.560455 298.592773 361.431030 335.297638 323.620667 326.824371 537.026428 244.603958 350.658295 317.829437 386.483795 371.257690 336.763794 348.480682 441.206360 340.715149 369.662476 300.733948 332.932068 330.375610 253.280945 367.261414 352.171295 226.796570 349.239960 406.527130 544.662048 310.284271 302.913666 296.468414 288.547607 214.000519 284.570953 352.132660 463.762848 341.246674 311.398834 266.267365 424.242645 439.434387 308.147888 420.086792 370.339050 238.221024 411.922516 299.592102 298.187927 317.172485 273.594604 405.623962 382.310638
conv_9_param_0 2096.819580 1340.446533 1045.232056 1540.521729 1463.851807 1433.666870 1187.279541 1403.256470 1221.837158 1717.561401 1630.491577 1188.410156 1672.377930 2058.881836 1198.174316 960.713379 1210.678833 1300.586914 1105.096436 854.837585 2227.948975 831.831665 994.459656 1360.201172 1337.425049 959.471436 1768.082764 700.268616 1503.776855 1170.805176 1434.552246 952.323914 1633.992676 1107.783813 1038.730225 1065.636475 1146.389771 1668.089966 2049.864990 961.659302 1066.353027 1101.029297 1371.341919 1213.832031 1642.851807 1351.151001 1513.989746 844.068787 1635.169800 1383.704712 1630.660767 1416.248291 891.860046 891.474731 1243.122559 1278.838745 1722.580200 1252.657227 1733.223267 1196.992920 1495.330444 1622.927979 1257.733521 1377.924438
conv_10_param_0 296.415405 295.260712 291.038757 339.418945 358.250824 297.968353 402.543274 341.952026 348.213989 310.186127 259.193451 313.804565 225.217026 304.015503 401.384460 346.289368 280.455933 327.846558 169.123154 327.078857 249.285995 420.738495 250.858780 274.806824 341.143921 239.674622 250.935272 389.787384 265.316803 248.753723 308.318451 272.575531 635.289551 374.255554 513.320496 503.680786 449.897919 596.160400 442.059418 528.802917 587.281799 419.888428 480.341370 364.823822 673.448975 319.116913 708.931519 598.270569 578.260620 443.676270 473.776215 399.570465 396.740875 490.393372 556.049133 384.041748 369.715240 346.255920 401.017273 355.118958 502.667175 369.272797 324.306671 347.251343
conv_11_param_0 124.273621 105.617577 109.535828 93.349991 131.752609 83.534096 126.066093 73.220856 95.330238 192.482285 95.828247 95.309830 88.209663 123.706436 101.255585 113.596085
conv_12_param_0 80.396828 83.833244 101.432899 111.791618 86.660217 105.066284 75.090347 92.099197 64.590347 91.265785 67.272713 69.052803 77.757835 87.447929 109.964211 86.491508 92.739426 100.468864 77.981781 88.522934 95.971474 83.037521 96.889557 80.104271 69.667679 99.628426 77.912361 98.289726 93.615173 80.821274 77.918228 73.241592
conv_13_param_0 336.947876 464.420593 296.968933 445.997345 372.829041 302.384277 331.557343 363.308258 339.517761 436.073975 290.360809 283.357361 382.086761 339.783203 283.851349 283.180084 317.919617 390.453583 472.888275 338.743591 218.564545 386.132446 518.544128 402.112427 465.972534 453.078369 314.437531 332.574310 345.725098 375.342010 296.895325 625.305908 502.329742 299.989227 273.792694 538.259338 333.413605 383.238708 320.339569 359.265472 402.907806 312.377625 500.352631 347.938171 405.991180 283.589203 453.287842 385.760284 481.172546 401.716278 341.642975 430.747437 371.686401 283.181335 501.754791 323.681976 382.017914 424.027496 431.631287 389.738464 436.742462 423.052704 384.995087 381.110321 345.024933 316.694489 377.025177 327.405457 504.927185 343.483337 380.396210 280.665344 445.069092 416.717194 410.018311 590.725525 299.934235 556.375549 638.941406 320.701447 508.926697 430.044495 356.338043 443.652618 387.108643 449.510712 293.274933 541.484131 436.791321 546.398560 329.967010 357.775238 408.307007 318.468445 571.145081 531.515564 369.509399 345.186920 370.494324 360.345490 431.991394 329.152710 417.833374 291.631561 275.603363 429.851990 333.677887 357.905396 341.394501 469.262848 417.079681 486.102783 442.252350 287.765808 265.656952 626.332336 503.078674 603.904663 430.405457 513.333557 511.031860 386.948639 405.773346 261.253937 426.123688 388.999420 415.232391 397.373810
conv_14_param_0 1550.281006 1491.664551 1474.039185 1482.785522 1489.353027 1245.883667 1474.854858 1616.604126 1702.422974 1697.172729 1611.683716 1986.393677 1838.924561 1748.593628 1265.269531 1971.645874 1310.135986 2697.809082 1571.407104 1701.105591 1550.533325 1257.367676 1582.073975 1555.416138 1649.082153 2145.760498 1896.696045 1642.936890 1492.191406 2277.003906 1512.450928 1632.491333 1757.225830 1405.837036 1717.955811 1059.233276 995.100403 1845.539673 1858.619263 1872.987549 1501.903442 1504.970093 1442.729004 2024.024414 2030.430054 1959.785278 1069.760376 1658.307007 1355.267700 1663.454224 1542.209106 1253.282227 2053.707520 1206.447266 1548.146729 1577.620972 942.614990 1341.722900 1654.681519 1098.015991 1217.374146 1452.358521 1605.030518 1635.092407 1620.982178 1411.557739 1769.097778 1464.329590 1550.437988 1760.509155 1711.842041 1513.818481 1927.606323 1448.019409 1657.245361 2114.839111 1675.005005 1855.663330 1352.367310 1369.094849 1222.457886 2082.958740 1718.140991 1693.683716 1937.272827 2178.413574 1474.807617 1581.532959 1478.678955 1643.804565 1425.701050 1610.949829 1766.886230 2043.940674 1717.411255 2043.429077 1603.996582 1800.356934 1306.259277 1316.254883 1549.674072 1847.240112 1778.066162 1737.673706 1474.829712 1271.110840 1413.384399 1234.529297 1512.697144 1370.442017 1962.277588 1663.788330 1261.978516 1223.277710 1918.750732 1584.021118 2203.817139 1425.577881 1750.096313 1686.182373 1808.495605 1081.616211 1642.472656 1163.590698 1905.707886 1702.884888 1336.876709 1534.068237
conv_15_param_0 519.478882 508.807159 521.327087 568.516541 619.309143 441.080231 607.242249 428.462402 604.694580 798.127258 448.512848 386.707458 389.135864 564.430481 406.323944 563.924866 487.507568 571.443604 620.019104 504.461456 489.277802 730.192139 615.283142 520.369995 418.243195 358.886993 376.396973 517.667786 472.617706 662.111633 459.561523 531.589661 493.845886 488.225342 508.287476 447.827179 405.752106 326.317688 577.333130 648.983276 519.177856 532.026428 531.088928 504.860626 378.170105 548.589905 415.569946 598.277527 401.089905 303.062958 453.951477 573.899231 484.334503 377.272186 461.103638 528.140930 514.645874 368.183472 444.216461 543.130249 461.638855 347.454468 620.586731 562.299377 550.216187 489.322449 475.623016 575.924377 592.632874 491.935608 530.946472 457.188599 517.764221 388.511566 422.629852 590.826294 633.234741 653.909790 471.824554 423.162140 523.377563 562.463318 735.224609 502.677399 572.696838 484.618225 464.682861 493.254303 711.633606 585.742554 558.035400 576.423096 733.638672 630.271423 477.713684 761.191223 489.780853 459.899811 589.576355 685.106689 420.751862 514.163879 413.664856 353.808044 512.304138 706.645813 519.953979 453.598022 757.633911 446.954285 444.211578 641.885803 370.351990 414.785889 489.515076 502.562134 500.183624 533.245422 548.445435 473.717010 578.781372 546.504761 469.415466 666.013184 499.647430 515.920715 490.321320 435.597137
conv_16_param_0 439.373138 434.777252 455.953827 470.662842 390.686493 457.193939 391.303040 348.126770 477.526642 446.888580 494.914215 467.830505 444.340973 343.469513 449.173370 416.889709 440.113129 426.132050 504.677063 339.321350 459.098694 413.177948 329.069550 391.139252 399.996124 502.499573 375.870605 281.063477 404.632599 402.725037 404.126617 414.206696
conv_17_param_0 133.979874 127.650215 117.989471 145.729156 111.067490 135.780899 85.240799 155.412262 152.243164 116.137100 147.352005 132.775024 133.334122 141.019180 132.303024 160.988495 166.442062 134.148514 145.233841 126.029900 117.819260 95.044388 147.932587 137.423447 135.294495 99.844887 101.546799 141.708023 106.904770 186.682541 136.848480 127.397575
conv_18_param_0 150.939529 156.680359 119.289764 133.553772 102.320442 112.906784 100.358009 117.648293 112.822540 106.589668 165.329361 114.792358 107.200485 94.584381 135.101822 108.759308 102.572227 102.366600 105.664185 143.854263 117.181084 115.377937 102.142998 111.218430 127.958138 140.134171 136.334396 122.952782 133.638794 133.701675 136.383881 118.911133
conv_19_param_0 174.090393 195.774643 157.236237 266.075592 166.586807 143.894211 213.539734 204.572021 194.902573 174.185974 174.708771 179.230087 175.331390 175.340088 203.143845 183.293243 207.218246 190.567078 175.418976 190.110352 179.069580 185.956955 172.796371 172.983566 175.180222 182.719162 195.256012 195.530029 238.909256 152.153198 234.690536 131.186691
conv_20_param_0 122.138229 124.987556 99.452820 119.705002 97.543465 107.313026 114.479713 126.159698 112.804802 120.852997 139.226547 133.776337 117.456474 83.205521 102.101669 122.613464 124.716476 132.001892 95.588806 94.214775 138.438843 117.684616 106.009300 134.904556 102.467041 140.681244 131.106125 110.546509 100.646149 129.507797 105.919952 110.434753
conv_21_param_0 422.399475 467.232971 289.018707 485.803101 354.248322 373.805878 348.666901 346.439056 314.015472 415.960419 326.392822 270.146088 356.513947 300.171448 219.056351 310.723175 309.858337 325.203033 364.990997 358.615295 344.392670 256.547089 311.153534 451.484985 331.285553 280.555511 344.782104 358.560577 442.752563 360.755005 336.367615 399.780365
conv_22_param_0 414.249542 400.851379 422.490387 385.447693 377.713043 309.156921 452.039734 453.154022 535.039978 342.309662 307.637360 303.480408 340.610992 408.391113 319.242310 470.539093 412.747772 473.480957 399.424286 435.263641 344.782288 499.500946 358.081848 501.936676 361.637115 306.955933 406.631256 475.181061 372.924652 332.188995 394.474518 434.190979 489.506042 408.667389 439.404846 338.484192 453.857758 437.630615 317.755951 298.698029 402.590515 298.507812 384.336639 361.881226 451.140076 357.319641 336.563538 440.284454 342.326294 336.788116 490.520935 389.366547 340.150360 411.372070 467.226410 363.046417 519.910950 357.287048 342.201904 294.474915 365.348511 402.279388 406.019165 339.466583
conv_23_param_0 516.504150 654.062622 666.889160 725.372070 590.585876 465.745270 413.001282 748.142639 421.638763 489.417755 634.338318 787.838257 885.281006 434.753662 920.297119 406.359467 703.217896 677.754883 717.618652 591.221802 686.093811 731.406555 584.111755 619.493469 498.834564 771.580627 680.895325 648.841614 382.884674 497.068024 494.565216 521.742310 724.446289 750.074890 558.659302 585.717957 522.199158 544.286865 537.032104 698.701965 517.145935 468.182892 481.704926 816.961121 761.875732 412.619934 480.301361 636.214966 478.983612 556.378601 748.681702 625.000061 694.075012 505.088654 572.687805 675.507568 632.060059 634.072083 527.787598 468.393311 706.079956 349.239380 526.213989 376.606689 941.519714 504.925873 516.045044 611.176819 595.063660 654.848938 736.671143 865.718994 606.679443 411.661316 638.613403 435.806885 590.404480 517.717773 643.667664 467.259613 732.354004 638.177185 697.166321 603.460815 695.203613 489.399109 439.106171 577.913147 641.837952 624.389099 809.291321 667.324341 354.795410 620.775024 716.987244 531.456055 321.017151 514.873352 488.751465 637.468323 611.535645 554.700500 704.685486 517.476868 627.756042 743.735901 370.800842 480.098816 615.038635 616.203430 561.499634 512.145813 572.359497 441.555328 593.425049 690.429871 620.335022 586.198547 629.888977 575.852417 826.205566 462.197693 709.806824 401.029297 702.828430 715.009644 385.511627 444.127136
conv_24_param_0 2265.660645 2239.536865 1958.518799 1651.898315 1971.203735 1911.957275 1806.777954 1758.048828 2509.623291 2539.324951 1869.196655 1898.873413 2292.080566 1584.854492 1788.658203 1825.410034 1489.152344 1928.859253 2468.078857 1580.859863 1810.349121 1924.435547 1689.604248 1545.398193 2114.076172 1698.253418 1739.248413 2286.018311 1896.991455 2307.395996 1688.445190 2416.291992 2113.759521 2023.692017 1979.144775 1933.755615 2080.979004 2037.026001 2144.678711 2108.211914 1695.467041 2051.293701 1827.770020 1742.775635 1579.117065 1755.566772 1647.352783 2603.354492 1832.831055 2126.364990 1313.288208 2095.909912 1833.890991 2116.466553 1774.135010 1355.299316 1554.172119 1810.555176 2046.461304 2277.721436 2296.837402 1716.045166 2046.526123 1519.757568 1731.479736 1973.518677 1915.260010 1527.881104 2399.659424 1644.268921 1203.039185 2070.296143 2100.141357 1879.647095 1867.103638 2135.415039 1916.875366 2093.914551 1580.923218 2030.180542 2252.289795 2160.485352 3176.806641 1798.011963 2044.116821 2016.964478 2049.645508 2611.432861 2193.833252 1888.557495 1949.568848 1358.770752 1995.460327 1785.078979 2362.926514 1487.744751 1692.398682 2298.224121 1927.577148 1574.776489 1633.064819 1935.558350 2226.981445 2265.114990 1930.382690 1992.433960 2105.373047 1753.627930 1585.154175 1633.806274 2037.054932 2363.018311 1549.613281 1779.710449 1884.300415 1649.974365 1616.429077 2301.532227 2071.020996 1607.804077 2120.261475 1742.522461 2007.784546 2117.864014 2383.251465 2202.692871 2280.364258 1343.478149 1474.806763 1694.953735 2107.986572 1722.152100 1454.911987 1973.927246 2646.617676 2162.617920 2261.282959 2118.799316 2063.728027 2478.223633 1695.847656 1478.041626 2097.946777 2118.621094 1944.872803 1671.364990 2461.239258 1939.627686 2078.066650 1490.790161 1585.710571 1943.393921 2926.496582 2237.228516 1955.760742 1889.119873 1984.814575 2126.615234 1899.192261 1659.881958 2256.981201 2099.006592 2559.480225 2710.295166 1936.232178 2733.839111 1505.270020 2343.138428 1666.715210 2729.191406 2353.914551 1829.360229 2113.206543 2267.425781 2114.257568 2436.879395 1854.464722 1434.493652 2800.447754 2175.082031 2182.679199 2095.479004 1930.328247 1176.991821 2183.143311 1665.799194 2291.331299 1852.186279 1836.569092 1466.979858 1684.979492 1882.362305 2208.802734 2017.694092 2092.443604 1864.552368 2172.820801 1832.904175 1907.088013 1875.466309 1777.559204 2452.318604 2484.378662 3290.222900 2252.203857 2038.529297 1967.955322 1906.853027 1514.937378 2813.937744 1918.043579 2038.955933 1997.658813 1878.378662 1588.505127 1721.848877 1330.202271 2258.890625 1330.561523 3200.632080 2031.276978 2220.012451 1901.179443 1647.977905 1592.223755 2084.215820 1628.823853 1864.194458 2852.399414 1780.875610 1888.769409 1453.762695 2699.120850 1962.636597 2136.226807 2537.624512 1708.799561 2030.992065 2128.493652 1728.247437 1840.971191 1860.776245 2041.122681 1757.405273 1992.067017 1565.565796 2077.433838 1390.922852 2309.484619 1664.006348 2086.007324 2897.882080 2223.754150 1734.075073 2257.810059 1879.905273
conv_25_param_0 805.420227 932.392212 844.852173 761.513367 732.460754 699.787354 750.027283 1066.615234 997.175232 709.248169 784.339783 864.458191 776.255127 641.789307 729.469360 756.773804 747.510986 696.381714 728.174866 1045.787231 643.555054 677.283691 904.530029 581.613403 885.407166 851.697144 744.646301 1052.648682 731.336792 604.721069 681.550964 825.622559 564.162842 811.197388 839.517212 548.918884 895.593689 991.755737 924.039307 863.833679 616.949097 875.747498 1243.345459 817.115173 756.519104 728.160583 898.479919 826.458618 636.348572 805.107788 892.157288 1005.439087 532.618896 754.071899 772.718933 805.309570 719.346924 544.591858 702.260437 1012.849854 756.104065 977.842529 842.403137 638.371094 1018.045471 862.969849 700.568542 1017.814697 875.719543 762.973755 919.434387 881.700073 691.582825 1096.131226 753.412720 1030.944824 833.656860 702.956360 1013.638489 783.293518 944.618347 910.808777 599.610291 786.158264 974.599487 828.882935 894.541260 803.432434 834.561523 833.448853 789.311829 822.480225 665.289673 806.612244 1301.106812 949.727356 817.379150 994.586731 721.719727 897.194519 817.839905 748.313843 736.000977 664.440369 861.650940 825.084229 718.577942 923.216431 737.800049 859.840576 777.925171 1087.900757 659.501526 889.460876 1098.378540 861.113464 759.807251 1003.481934 756.085205 833.655029 1213.043579 898.077148 790.131470 1159.841064 884.886658 562.365356 911.314209 849.088501 1041.376953 1211.636597 1179.875244 789.718567 1033.832153 1089.350098 898.141296 1039.886963 737.588928 1114.603638 906.211670 938.954956 723.590027 607.209351 745.237305 866.091125 854.775269 1060.648926 984.540405 854.274231 947.191772 834.273926 739.633789 801.420349 1227.514771 1183.691650 1183.788940 934.100830 1191.384277 1082.824585 968.217285 765.421387 1194.316162 1208.592041 978.315063 1127.159790 766.341187 910.039001 691.469604 887.817566 1153.485229 956.046387 1066.893555 1036.478027 1210.752930 993.244507 899.173096 911.694824 1103.958252 1164.255859 967.246277 950.307251 1276.994263 755.941101 970.011841 897.152039 989.158142 884.474731 698.200623 869.019104 1503.935791 755.039978 917.277161 850.354919 861.848022 1085.578613 1239.346436 1279.980957 785.936401 856.688416 914.438599 1065.821533 1011.886169 905.130737 1146.115479 1397.647949 1155.125244 992.418762 945.620117 783.805908 1045.896729 1022.273560 731.898193 908.363403 1130.349609 1457.244995 784.934937 817.673096 815.636536 1039.452759 979.441589 1264.067627 908.198547 975.078186 893.413635 1044.978027 1013.245789 925.224121 733.683044 985.532227 717.074402 1011.319092 991.906250 967.717834 1011.808105 1156.934570 1030.108398 941.378723 964.292358 817.094421 1080.427856 1105.051758 843.200867 612.202759 834.533447 918.855713 991.484375 1193.996094 944.555115 895.308105 863.366577 853.122314 1037.931030 1059.436890 992.370667 977.732361 1154.291748 735.986450
conv_26_param_0 527.003906 508.092865 563.278687 557.304810 671.387939 633.899292 561.469727 627.565491 688.306152 571.972473 608.895020 481.405304 471.602081 1035.687012 619.190002 648.758911 587.583557 1053.310425 576.175537 689.345032 608.110535 565.158630 551.798096 554.819153 759.781372 809.071899 440.607849 557.982422 949.573364 703.501160 460.872009 644.216125 693.775940 666.518738 721.236755 691.795044 465.039062 575.148376 460.132721 772.866821 558.501770 518.128540 449.240906 839.943359 489.859924 553.689697 575.956543 594.968323 603.442261 590.317810 505.918518 519.397217 636.426636 675.795410 600.517700 823.295166 888.698303 760.506836 497.790344 668.182434 604.058411 778.759521 655.351624 558.556702
conv_27_param_0 232.774078 218.296997 250.014542 254.327194 246.992371 240.458435 216.592880 230.744080 243.380600 295.487000 232.094315 280.805664 338.192627 344.263794 203.489014 240.268204 214.526627 255.939133 285.840179 198.896240 309.467529 246.606430 277.104584 249.090958 303.445892 189.127106 178.045441 221.564896 249.254898 287.428864 261.002319 210.825470 216.205261 220.571121 258.992310 238.572357 406.081177 302.064850 189.422409 266.505463 237.676926 221.651001 254.102325 247.634567 228.284241 202.641968 197.596817 193.268707 250.262405 227.378647 271.756775 255.686356 221.222382 184.326218 273.894531 256.556671 270.213318 229.744644 237.752167 295.316132 280.817352 201.561829 246.060577 205.657623
conv_28_param_0 203.496170 268.027863 258.854431 287.103210 304.305420 294.915833 218.928055 261.804321 290.240356 259.208893 273.839844 281.296387 237.784027 243.122604 221.934372 280.541565 258.711060 298.928070 260.168945 217.319336 233.042725 329.085510 237.357132 284.827728 293.368530 301.039124 232.956039 248.058380 285.906982 148.032303 283.504364 219.160324 260.278137 329.365082 293.517609 287.105042 268.812897 307.255432 224.948792 266.021423 193.463272 312.591736 245.644180 266.616760 260.615021 249.269989 272.885040 255.400787 219.232681 247.916595 270.851776 263.468018 228.810654 278.930664 253.494736 250.489929 192.956711 335.352020 246.646423 230.676636 321.366028 319.216431 171.769730 287.687775
conv_29_param_0 332.098846 353.113098 322.351776 295.849274 345.788971 293.028625 339.969513 295.296936 341.426270 262.089081 366.527252 348.881592 356.615356 301.163605 262.871399 339.706696 292.973755 341.339905 305.844055 305.583252 303.301483 325.050720 289.021149 373.725739 313.288300 377.667480 364.082092 336.320160 274.396149 357.629059 364.518341 304.637787 429.774323 251.062469 330.155334 321.159821 284.392242 318.796143 259.297485 296.468597 292.945923 335.678619 311.011414 312.886475 355.954712 360.123962 311.912201 289.647797 357.932373 324.228119 275.366058 286.254364 329.080658 278.453461 295.747437 304.380310 304.502716 301.126678 379.050964 256.686279 303.590790 305.370911 275.212830 390.166748
conv_30_param_0 228.282211 312.325073 220.409134 297.747009 247.485382 224.742477 224.568985 255.648300 282.702911 309.921265 298.430786 280.092499 210.453720 215.261353 348.440033 248.768158 276.713867 224.840744 229.981689 186.006241 253.081619 223.870499 329.755157 221.147354 230.769592 243.574203 237.557266 281.964142 203.843826 240.784256 186.402283 241.736298 239.775681 232.921722 301.333008 238.651276 244.849472 273.114929 266.279205 215.371323 168.417404 183.092880 283.014862 237.895096 264.644043 244.977203 231.009476 219.298645 186.770477 231.871628 218.288681 189.649506 214.061539 316.405579 249.235077 270.338959 176.214584 245.570099 228.541748 220.256393 306.360443 298.618347 217.713715 232.001694
conv_31_param_0 615.883667 450.065643 496.370453 791.522583 293.888245 513.947021 586.414856 389.396790 784.031616 420.394257 479.983643 598.104248 659.785889 605.411865 494.768219 550.578247 531.599731 543.076599 385.154297 634.324768 384.037781 345.738037 553.322327 377.786560 459.807953 503.903290 425.918701 499.975403 396.922089 427.755066 422.402435 486.300934 326.353943 433.597260 574.317322 617.103088 499.367004 498.820526 565.818848 576.357239 355.595764 361.144165 399.109192 619.266846 615.797241 513.626587 473.441711 456.351715 673.303345 675.968384 397.952301 492.384186 455.476807 619.179688 476.898224 562.882324 677.498657 427.275391 493.455811 458.738800 464.133606 569.499329 527.971619 647.307068
conv_32_param_0 685.293457 589.688293 681.480774 587.131287 682.999207 735.096802 629.041321 537.846924 670.092041 754.151733 586.128052 405.406464 651.404175 803.659729 509.343018 666.769653 868.773926 552.774170 604.531616 767.487976 623.729980 731.494507 932.639038 572.187683 575.685791 712.556274 484.183014 520.654602 571.398682 532.158875 573.100952 576.935547 773.908630 574.566467 576.294373 655.514648 492.235016 595.769958 539.417908 637.928650 779.694397 552.192078 756.209167 718.259277 736.606140 645.788818 718.834534 704.444885 557.305542 599.216614 568.230530 521.821716 668.526733 631.143860 597.666138 833.465515 659.034546 657.916809 531.488098 629.931335 755.078125 589.790100 593.543823 755.923706 684.184937 623.326843 462.867859 623.547119 585.670898 541.466553 578.630127 705.379028 751.200989 617.081970 476.044983 537.085571 726.501343 504.125946 417.384430 760.987671 559.048462 708.433044 477.751373 565.780334 915.614624 711.520447 588.238647 627.610474 658.085266 679.791077 570.190918 570.580994 570.114746 635.447632 614.083923 658.722778 578.400574 788.023804 449.499207 598.013489 526.476196 650.444763 610.277222 668.662170 634.530945 668.326965 732.755005 593.185852 800.298035 714.925415 644.420715 550.261536 619.074707 618.374756 699.591858 635.009766 522.586182 560.865479 624.534424 742.294922 602.090759 768.817932 763.466980 634.866394 920.654236 620.260620 711.321045 658.714661
conv_33_param_0 946.406982 1150.361450 746.794617 694.159363 1173.551147 881.748474 764.185486 1079.884033 979.815430 896.416443 1172.251221 855.274414 868.790283 1041.850342 1102.843506 1045.987793 898.542786 1057.450806 830.645325 963.478271 1193.503662 847.419312 961.154785 885.838196 972.122742 762.647827 1016.179077 906.730652 869.039856 931.488831 1099.399658 1103.438965 799.696289 1149.171631 893.361694 756.985535 866.767822 1331.509033 1111.095215 944.505737 979.793823 963.804565 932.404541 790.643433 798.743896 1060.220093 971.009460 1086.041992 987.288330 1069.622925 1377.529053 1043.389160 1039.848877 1318.045898 1049.704224 1131.257202 1093.733887 948.126282 841.721069 879.009460 832.959473 1239.730103 1207.561157 1048.623169 934.950134 988.459351 863.330444 971.848511 1017.888062 1025.415894 1022.493469 741.037415 764.144836 859.057678 902.287354 804.316589 1104.002441 735.290527 692.098938 1135.776855 894.440247 1001.341797 838.234497 814.758301 1022.862183 1049.164429 1287.470703 1161.625488 1017.384033 920.428650 873.926208 994.715942 801.836975 1059.726318 1131.009766 1065.966309 1245.834473 1052.360596 958.267334 839.365417 870.456421 965.984314 1051.994019 1073.922119 885.752502 983.127380 725.159729 962.178345 785.154724 1107.757568 986.003113 1199.219971 1185.159546 697.965942 1172.389893 809.580811 956.059387 970.517944 835.667358 661.041931 806.354614 1076.505615 852.282410 991.408630 1028.562012 866.123047 752.438538 787.339294 887.330078 1138.745850 931.890320 1047.791748 802.554321 1007.696472 864.979248 1100.982666 605.230103 1109.941895 741.796692 1132.368164 861.990723 932.199402 1049.552979 863.833557 1401.017700 717.976074 892.461243 908.153137 975.050720 748.107849 1007.202393 1186.715210 968.264709 864.038879 837.446228 1231.160767 892.319519 864.120850 1003.245422 978.224365 957.940735 859.601807 938.765198 800.957458 738.467651 979.831909 763.970093 1248.169678 1257.317871 835.611511 852.490234 806.651123 990.199341 684.788757 901.946350 1145.747925 1228.459229 979.508484 1043.482910 1003.085693 1021.112610 740.499207 660.437744 1148.875122 1059.983887 734.473938 778.033447 1037.828003 938.584351 1036.427856 901.781616 1320.096680 856.142944 1086.236572 1012.173706 1010.180420 1103.448730 958.214233 1174.331665 843.441772 796.382935 1093.919189 1179.840576 930.305115 1105.297729 982.018860 865.444336 1027.300781 1049.308838 987.275391 778.762268 1259.448486 978.375305 791.974792 1067.278931 985.499084 1085.803955 690.406067 705.488220 1003.377136 704.489990 1100.657959 1147.986938 1217.592773 1190.949829 882.209412 1065.086060 880.469421 1189.135254 700.551270 907.125183 1013.793457 860.316895 1275.956787 863.104614 789.620667 1102.646851 1093.449829 1038.355103 863.350037 1257.209473 839.786621 778.139832 1124.282593 861.859985 929.656921 1114.377563 1185.224976 683.291931 1122.047119 936.937073 998.987976 1144.391968 1006.245850 1188.290527 856.109985
conv_34_param_0 792.328064 754.050781 907.007629 709.077087 539.606689 683.856628 754.457031 743.874817 626.702393 719.478333 767.919800 738.344543 1028.144531 965.453308 1013.549805 1104.260132 1105.093506 807.275513 710.772583 643.515442 818.041382 715.743896 752.159851 834.744507 551.603088 624.208313 889.564514 649.936462 550.250183 795.334473 796.166748 863.022339 640.692810 1190.471680 973.406677 722.228271 817.842224 717.844666 630.793152 975.420654 613.245483 751.519592 960.087219 788.296387 896.833374 1070.978638 722.564331 865.122986 742.185242 578.799927 710.252197 751.985352 583.330444 693.355835 640.566528 1012.531006 536.178101 760.308044 755.209412 654.831360 592.747559 681.978760 637.239136 735.213013 851.999390 687.078003 870.841309 688.289734 779.247864 623.746216 1047.092285 1018.405945 703.225037 909.766663 917.512085 662.211853 618.079041 618.814209 709.694153 542.319641 640.680176 680.774536 805.609375 759.627319 688.015808 715.813965 989.852356 683.022339 775.388794 922.559753 832.406677 821.080261 897.891907 848.755981 629.613770 749.244629 814.315857 755.327393 782.309998 627.431152 770.749512 945.361755 725.015015 806.812927 688.764099 818.478271 623.588257 731.371887 696.464294 701.103088 698.087219 682.988953 603.762939 780.195618 621.276855 735.260986 587.182617 953.383240 616.616882 631.802917 759.482727 834.184021 857.078186 498.834778 685.780579 955.096924 859.411133 705.643555
conv_35_param_0 1718.279419 2046.216431 2033.987427 1911.521729 1471.879395 1973.007812 2328.553223 1717.173950 2111.765381 1698.587524 1451.619019 1323.752930 1299.768188 1356.860840 1895.076416 1572.102783 1715.033691 1399.636108 1693.086914 2000.893677 1628.560913 2230.811768 1344.244629 1943.836670 1601.986084 1655.844238 1409.762939 1414.351562 1441.165405 2032.712036 1918.086060 1688.586548 2117.821533 1953.766479 1987.975952 1446.022949 1833.694702 1831.124634 1347.630127 1321.550049 1542.863892 1681.329468 1786.371094 1592.344849 1733.129150 2027.170898 1742.599854 1780.921387 1370.578735 1774.612305 1501.922119 1718.939941 2235.736328 1381.348633 1501.333374 1933.841797 2381.980469 1501.902100 1617.804443 1347.489502 1798.879150 1550.091553 2400.056641 1790.349365 2054.911865 1641.626953 1925.692017 2202.462402 1906.887451 2663.876953 2346.024658 1481.420410 2152.587158 1391.859375 1987.704712 1815.972656 1563.079590 1741.454346 1966.333008 1820.192871 2229.151611 1718.695801 2196.606934 1399.248047 1731.870483 2355.555420 1719.123413 1987.099731 2149.477295 1807.026611 1361.383667 1721.580688 1664.986938 2325.542480 2549.017090 1765.612427 2476.868408 1678.789185 1822.031738 2854.695557 2153.247070 1729.018311 1992.451416 1331.474243 1415.719360 1618.939331 1802.557617 2008.841309 1856.152222 1795.443359 2135.425781 1922.845581 1784.321289 2010.268433 1772.206421 2817.408936 1383.758179 1973.021973 1593.636841 1023.950806 1508.990356 1719.141113 1664.623657 1476.767578 1410.161865 1809.558960 1871.338623 1967.667236 1625.173950 3443.253662 1643.753296 1283.901489 2145.061768 1543.299438 1343.351929 2312.309814 1337.515625 1635.182983 2075.633301 2257.745605 1838.342773 1879.397583 1710.641479 1712.338867 1724.221313 2352.809082 1849.585449 1695.674683 3491.470215 2326.796631 1228.800903 1814.659668 2380.331543 2401.416260 1416.107422 1703.024902 1535.378296 1881.168945 2410.798828 1785.501953 1858.980469 1877.242798 2722.736572 1714.976440 2575.029785 1767.666626 1901.723633 1374.498535 1948.765503 2197.366699 1383.591064 1580.506104 1565.831421 2065.241211 1545.458374 1639.803467 1888.791382 1806.512207 1626.854126 1544.121460 1909.388550 2061.658691 1517.524536 3105.511475 1606.244629 1711.516846 2319.684570 1669.387329 1872.740234 1997.093872 2080.936523 1860.788818 1967.116821 2582.499268 2146.785400 1969.635498 1425.901978 1796.097656 1852.834717 2557.616699 2512.261230 1695.228638 1888.485474 2216.372070 1729.195068 2001.774170 2359.406250 1931.302979 1631.116089 1422.785156 2654.661865 1602.611206 1745.962036 1708.836914 1852.276001 2284.187012 1676.355713 2415.344482 2106.184082 1944.391235 1419.771362 1792.560181 1734.227905 2068.374023 1862.168091 1746.792114 1803.593262 1949.651978 1298.737671 1701.805298 1851.652100 1766.721802 1685.057861 2007.723633 1653.186890 1789.934326 2474.642578 1818.477051 3566.724854 1359.873169 2079.556152 1609.395264 1896.414429 1770.917114 1968.670776 2078.042480 2117.293945 1839.492432 1899.488403 1739.416626 1311.823486 1921.880371 1620.382202 1778.848022 1823.742676 2058.896729
conv_36_param_0 474.540039 572.777222 550.796021 451.429993 593.664124 571.037231 518.682434 618.252380 492.775482 390.900909 398.804260 528.450378 584.721436 534.154358 492.671051 590.229675 422.984009 449.956299 499.318115 450.663239 482.267303 481.365021 389.397003 434.412140 566.207397 503.108185 406.134094 363.476196 393.635956 577.323547 401.848450 435.174255 421.831146 465.115601 535.022888 482.841675 533.188232 389.028381 502.493805 676.139648 503.152039 422.948212 610.909058 390.615082 450.324677 452.607269 467.325195 424.387543 416.021271 522.085022 407.884094 452.323059 460.127045 469.291504 527.269531 445.301819 415.696869 408.834503 578.683472 495.817230 434.542023 523.739258 362.905243 430.225800 513.597412 485.864258 378.542053 395.438995 425.015350 419.270111 426.118622 579.073669 388.780823 427.539307 429.685120 465.842468 467.599762 703.667419 582.898315 401.709442 489.970123 338.595612 647.440369 371.828979 396.101196 571.494324 516.908997 398.721802 400.595703 423.973755 480.678589 595.410156 400.261810 448.909729 442.655609 363.735748 582.272644 617.747925 340.285858 438.832672 414.560944 522.740234 387.971313 567.801392 447.436493 529.245483 425.048401 531.744263 424.106384 606.259583 426.434540 452.557220 447.791595 450.472321 430.306702 494.368317 581.074463 485.432068 420.517700 538.570312 628.436523 656.912109 404.991791 666.456848 451.795105 464.971924 494.809235 446.540192 848.571655 472.347198 713.701172 890.775208 643.853271 610.848999 587.789124 707.986023 681.383728 715.188599 720.797607 632.419800 645.904114 609.854126 694.898071 596.034912 451.123596 514.619751 621.603760 745.163086 647.980591 474.053711 604.891663 515.285645 696.277466 749.931885 666.562683 659.901550 671.324341 411.892578 469.579102 646.937439 556.745728 635.449646 558.598328 701.247375 627.464355 641.538635 531.307007 484.300323 486.338684 386.609344 461.112335 537.063782 597.682007 607.404053 571.784790 638.892273 527.651550 513.139404 761.155640 680.603638 603.436890 581.479431 537.802185 678.021729 705.932617 763.290955 557.558289 599.049561 420.163116 786.961121 738.973389 787.688477 597.006287 697.901794 553.718567 679.973389 698.694214 502.719543 668.357422 630.575684 602.405762 493.243927 628.933167 622.225891 577.751587 453.438843 580.724915 614.612671 488.868256 379.419739 892.192017 547.452087 529.178650 693.437561 636.170105 638.547791 599.299377 766.630493 663.713135 713.609375 604.427551 612.887207 732.776550 614.374634 498.407898 505.725128 615.409424 650.331909 764.406006 606.017029 620.367981 550.019348 629.158386 802.330566 469.339844 465.155701 549.332092 611.364868 648.593567 411.906891 551.449768 596.904297 624.203918 496.836029 526.764160 593.305969 823.031372 750.499329 499.175629 836.802673 732.731445 731.741272 752.750000 691.459473 672.924805 598.888245
conv_37_param_0 390.009277 376.670898 565.314453 610.186707 376.072784 513.208618 357.614288 505.063934 738.787231 307.945892 518.799744 548.037781 393.603027 339.197510 378.157196 388.598114 383.969421 505.112183 483.296448 322.729370 361.783997 479.163361 449.763489 468.774902 621.308044 530.303284 343.227753 455.281525 565.530579 333.662659 578.540466 427.747192 604.613770 628.067200 620.016663 687.657959 487.192291 641.142517 648.776001 425.079987 439.849823 341.220245 561.660339 513.526062 460.044495 676.538330 603.416870 368.385254 482.852875 533.692871 348.509979 513.478149 442.534088 477.150848 615.813293 356.468872 554.214172 570.969971 504.141266 544.760498 539.969910 417.640411 530.979126 398.976379 617.980957 511.252258 569.141418 659.919861 458.580536 526.064087 526.560242 401.951965 442.963135 475.962524 429.562622 440.788635 503.763489 530.901306 431.532074 343.809937 376.196533 567.133484 333.984619 609.282776 357.496185 571.743225 450.672150 473.046295 316.469879 306.760864 384.816589 326.303711 473.266083 365.693665 566.730469 741.260559 410.831116 390.574738 520.647400 506.723450 307.999176 330.897125 340.020935 302.122711 359.206665 499.684143 400.672089 324.348114 399.359100 327.109161 459.400909 392.350189 306.048309 490.482086 363.844543 452.864502 311.908936 500.623840 299.793213 398.893158 605.870667 477.598938 434.216217 385.562225 319.804260 384.717896 485.054443 330.351257 625.254456 497.481598 466.427673 508.327057 544.956909 547.167664 675.862366 716.812561 364.205200 423.947693 511.213318 550.017151 503.214050 522.144958 520.289856 744.585938 397.139374 474.691711 580.323792 460.547791 650.351074 434.351044 754.434387 560.209778 468.994629 663.042175 483.049377 583.941956 484.178772 487.181091 625.435913 367.694061 477.602692 726.817871 544.640076 425.646423 589.976990 610.296021 506.603088 627.862000 523.527100 342.416290 547.532959 452.867737 517.422241 511.891754 582.474670 571.455261 560.426453 484.789856 526.058716 475.138947 506.754059 432.028107 431.922699 651.698120 532.154541 522.004028 419.543365 490.775269 444.070770 406.190582 472.480927 501.867828 451.010010 357.757019 507.303375 494.765961 476.851044 579.624878 327.474335 386.624939 471.325714 400.067841 602.584473 687.545593 479.098175 679.170532 285.037903 403.626862 400.502106 525.875671 337.599091 298.593811 507.066101 327.802612 543.517151 385.170746 464.480469 375.097137 434.044220 447.910736 405.456329 351.948029 407.095032 392.781647 375.319733 505.440491 460.643250 448.202301 552.726379 458.533417 452.031036 435.767517 346.289825 443.070892 335.428680 503.054504 410.799530 440.581573 270.511292 458.671692 430.633789 535.173035 515.996521 540.708496 378.278564 511.144775 332.991241 351.424255 453.120483 364.726685 368.891907 420.924988 296.099121 461.870514 364.630585 351.330933
convdw_182_param_0 135.619080 163.164291 313.184143 338.858368 146.985474 237.729355 347.841766 362.096039 372.381378 397.216400 151.722565 182.126877 191.007477 132.965210 247.700195 144.210861 130.262161 437.644745 168.902878 277.113098 262.846344 241.273407 311.513092 247.357574 391.056732 204.225586 403.357971 186.375549 164.077377 333.272766 168.482193 246.963470 218.877350 128.728241 150.152725 242.116959 325.344421 253.432724 203.116760 342.858612 243.863205 156.970337 176.761200 129.131104 210.891586 178.531174 273.583954 322.508240 259.304504 190.399521 121.560905 264.445557 199.870605 680.369507 173.393692 154.940872 351.419250 155.162537 272.164215 272.748505 311.882019 148.006836 122.225395 123.569801 254.965256 279.970184 138.845291 175.205536 167.444519 229.126770 132.990173 122.313271 142.183334 599.355103 111.706802 218.289108 127.005562 647.430664 184.989014 191.677734 402.261932 715.371826 110.303566 183.336365 105.136490 172.825592 282.975525 212.528122 209.398560 148.045151 147.570328 152.075409 137.997543 187.799545 328.301575 151.639557 93.378731 396.793884 145.831451 544.869690 221.177017 126.226669 382.850586 323.071411 178.206238 322.131500 506.475555 87.048523 149.268646 141.885422 139.040741 374.982025 466.451294 109.777176 394.427185 296.688782 276.864624 185.068756 178.468842 112.422035 204.924194 145.033310 336.860352 475.766663 265.377838 389.692780 114.638916 105.347900
conv_38_param_0 708.038757 1087.215088 682.952576 1004.777588 896.744690 808.479858 947.667480 1309.064575 742.607300 762.643127 793.536194 896.828979 966.560547 882.888367 800.287659 778.888977 783.413269 731.752136 1084.296387 624.349792 907.754639 760.797363 816.863525 1429.101685 733.260803 1183.439087 837.502991 1020.103271 624.608215 603.304321 799.333313 839.993225 1185.345581 735.440552 554.555664 663.929626 694.330872 609.980652 854.717896 1191.414185 545.542603 581.492310 1125.637329 862.710999 1088.400146 877.824463 1254.562988 617.693420 1019.385803 751.898071 1176.581543 1162.067749 914.645386 777.985474 623.942322 685.972351 717.254822 1092.747559 508.317474 797.251770 1039.994751 804.631287 729.744568 530.350647 1441.709473 884.129883 677.541809 589.690491 740.568054 848.911987 677.807068 780.355774 1277.159180 1080.409180 719.043823 652.403381 772.554993 972.713440 730.381531 959.705933 857.872131 1006.082153 728.914795 705.634399 876.929626 876.114929 777.944214 902.928284 1030.009399 886.975464 822.040100 947.007690 731.744629 632.672913 524.038879 733.255920 1212.123901 787.854736 797.913757 640.781128 808.399353 898.698669 893.450378 723.242737 874.410767 855.001038 755.513916 734.412842 705.292419 678.979797 554.593262 679.152039 881.735840 764.716858 723.609741 646.112549 678.742676 1142.830811 967.123901 854.075623 620.593140 686.535278 756.492798 635.302063 1273.750854 707.068481 1186.194336 496.580933
conv_39_param_0 798.286255 762.593262 1022.466919 947.295654 815.988953 785.178406 662.737793 1028.537354 682.359863 848.598145 977.476929 1047.225708 1022.541077 788.598633 632.613831 1200.399902 1121.420532 874.235413 930.963318 820.433289 700.066406 887.104614 649.267578 1033.791382 1088.434570 773.915527 850.927734 989.647400 705.888855 687.496155 803.846497 1173.626587 842.436157 938.837341 755.186584 776.742493 857.917542 708.552490 931.810730 770.808838 1382.902222 1054.134155 1103.003296 973.802063 864.119995 688.737427 768.571045 635.970459 684.916504 771.604065 695.927856 1167.566162 686.718201 1410.428467 1311.125610 806.083252 807.157104 933.937683 843.648987 733.035156 1161.894043 1515.334473 790.933228 1348.803833 1285.781250 951.724854 1144.465576 772.170654 760.144653 1150.036255 598.391907 805.175476 1054.162842 949.585999 782.450378 1441.048828 618.582886 733.074463 1011.239990 762.333801 805.541748 884.172913 832.981323 838.011414 813.319885 650.619324 727.423218 713.028625 925.580078 657.307495 799.378479 633.152466 750.684570 888.143799 793.304932 794.734802 1049.958496 783.201904 951.037537 927.578186 887.100830 747.778259 859.377625 741.148254 711.839905 797.275940 732.195007 1768.715942 596.694153 1015.165710 1194.071777 787.548950 920.327026 915.278809 972.500793 891.514832 1449.437378 716.127930 923.045044 895.476501 1006.347656 829.762512 664.116150 903.394165 757.999634 870.585388 963.229919 681.804688 899.070374 789.434814 676.797180 756.887268 947.550415 731.044189 884.232483 767.732056 1034.721313 684.395813 1123.873169 722.023376 824.218933 1195.908691 771.801697 791.428406 1139.337036 977.679810 950.611145 778.450439 870.594299 935.686890 740.237183 1276.875610 818.921021 845.760681 978.984314 768.339294 992.685425 1195.357300 647.949768 670.742798 834.599731 721.711365 628.051086 750.645325 889.616028 984.010254 686.972778 1231.450439 1105.010498 1328.926392 781.266724 837.547913 1039.249146 754.799561 1261.347168 1467.222900 925.444336 893.746765 1283.448975 937.185608 1092.362549 799.325623 682.504333 761.372131 765.689819 676.084167 758.533569 729.819519 973.242920 694.763489 803.659851 859.963928 1183.681030 761.827393 640.704041 859.370911 1298.763184 1323.753784 1571.178589 824.159668 662.084290 936.615723 1102.400146 693.780579 684.348694 646.554565 832.884277 942.490845 1044.746460 672.819702 806.509460 1317.175171 1154.429810 767.002625 771.852722 653.599976 740.750427 1066.216064 1244.681519 912.734802 772.615356 1032.377441 789.479492 1402.289795 805.642456 970.243408 875.247192 1272.116943 1016.017883 1462.004028 1172.324341 833.977539 837.530701 650.164001 1134.337769 808.305603 701.837524 1036.539307 679.111938 1146.401489 743.575745 962.701111 1511.351929 816.552917 1017.971069 947.143738 753.454834 1380.619751 1235.761353 740.309265 1036.964966 867.443298 689.752930 874.485291 897.830811 951.179871
conv_40_param_0 1141.367432 1829.047119 884.564392 535.801453 984.581604 954.080505 571.979858 955.379272 1348.371704 612.110840 645.436096 1022.851501 682.700745 721.651672 1080.035278 824.988403 1020.118652 1232.950439 1640.740723 833.323792 1056.903931 832.726135 855.523804 1662.731323 792.642700 567.776306 703.243164 1129.983887 1027.781250 779.761597 1338.019165 776.853455 474.631714 1119.871704 771.283813 739.381958 1320.395630 984.558411 820.706177 1329.921631 958.920715 579.799988 1299.270874 1010.206543 872.774719 774.332947 1053.795166 667.124512 1513.391724 749.594299 734.594116 631.479187 486.576202 1068.833984 862.794983 518.524719 717.576294 566.570557 552.370544 1499.652710 714.158325 915.084167 1139.223755 733.030029 967.016663 1234.994751 953.316284 458.779999 1292.453857 695.617920 898.866028 848.904175 1063.005981 646.679993 1092.576416 582.836365 975.661743 1070.740723 801.467957 1288.236572 1153.964600 815.090698 835.455017 645.962646 1114.591431 926.630005 674.345886 1314.175049 783.242432 831.359558 1026.680176 1461.112915 854.861755 805.272583 561.469604 808.231445 902.442017 642.347595 564.030396 630.072449 648.669861 1383.224487 1484.104370 976.738831 961.229248 611.176697 1074.858154 1155.713257 838.320007 774.313171 798.094299 496.374725 900.610779 844.097046 808.279602 613.539001 957.527588 1183.103882 1147.759277 1103.935425 640.171143 1025.030762 827.517761 398.046295 1349.435303 1180.805176 904.743103 824.198425
conv_41_param_0 997.645142 1119.763916 987.570679 908.579407 997.699219 1708.507568 928.654663 867.349304 1373.797607 867.155945 1194.810181 875.752319 865.995056 945.177124 1049.926758 1480.219360 1003.258423 1222.310059 978.577820 892.966553 950.635742 1059.548706 964.472412 1142.424561 1039.156860 731.390686 1578.339600 950.260620 1165.128418 1371.220337 998.404480 882.385681 997.098450 858.368652 1174.974731 820.294312 800.753906 1155.267334 1033.638062 703.240845 1290.341797 1081.655273 1197.559937 1042.949219 975.430725 1475.297119 1051.817627 952.731018 924.209961 947.056396 1182.186768 1168.262695 1028.524536 837.194397 1270.289917 922.099121 749.309387 1207.226929 908.060181 1227.697510 972.304749 789.555664 1089.367188 813.762085 988.014404 818.856812 1003.506348 1173.273315 1183.034180 906.855713 927.544434 1367.549072 1318.133301 950.486267 1047.025757 921.845581 966.403198 905.674072 1037.303955 939.760071 1277.088989 1106.933838 1181.837891 958.306030 980.101318 1277.887207 838.613281 1114.707397 984.931946 1020.943726 785.578247 799.979187 1168.344116 1220.185547 1042.574219 1336.652100 1158.937988 1058.541260 923.874023 916.676331 1074.232178 893.151672 1315.360352 1391.303345 955.940674 1007.628662 998.705933 1113.981689 957.387329 1029.464233 895.912537 899.757935 1058.706055 1197.900513 1097.057861 963.505310 954.790588 815.446594 827.053711 1067.471313 1216.239502 840.495056 1082.437866 927.795654 1056.052979 1212.018555 1888.251587 901.763123 1101.880127 999.831299 957.578674 740.391541 1078.994629 929.124207 1059.169678 1007.237854 944.884766 944.994568 1621.294678 767.682495 981.246521 1047.628906 950.055542 916.330505 905.607483 994.089417 1035.368408 1049.311768 987.211731 1212.630493 1284.076904 832.818909 893.705627 960.837280 932.751099 826.969788 1055.297119 723.236450 1749.269775 988.363281 795.169922 1227.895630 685.789001 825.686218 1671.804443 982.401550 782.160339 902.446899 937.683716 1140.468872 1104.646973 914.511780 1085.342041 1081.239746 1036.541626 945.540283 941.652527 899.012512 840.153198 1152.738037 903.906982 1089.953613 984.741333 1116.701782 1078.677490 1191.760620 850.968567 1296.870483 977.976074 999.035278 1043.488403 1174.270996 1015.610291 975.883362 1133.893799 831.583435 1144.488037 918.923523 966.822937 1031.314453 1139.588867 739.706665 864.080811 903.316528 1277.176392 1078.375854 927.974304 1255.741577 1023.821594 968.639282 974.928040 1006.479004 848.439880 1269.232666 1017.971741 1267.945312 814.008545 808.294006 1068.087891 1025.634277 1372.535645 1153.826050 900.912659 994.739502 1269.581543 1175.959839 1241.769653 1145.670654 1010.735352 1222.473877 1057.228149 952.598877 945.756836 1139.045654 860.286316 1257.761841 930.454529 933.923035 1242.604126 918.382141 1105.025757 1353.209473 1123.040405 1044.962280 1028.085083 845.161255 995.228882 1223.949951 883.077820 1168.320068 855.895508 1073.792358 903.990479 1791.057861 1637.583862 914.715759
conv_42_param_0 772.327271 468.022827 632.716125 865.441406 803.758911 591.428650 554.911011 548.278870 661.421326 605.097107 542.124939 474.477112 688.460754 880.288147 809.750183 707.250977 931.563354 913.195251 931.119812 745.193176 685.122131 615.640137 854.879517 681.834961 576.951233 712.358521 727.239807 690.310974 827.801025 713.632812 942.615295 565.059143 506.245178 763.307190 678.077209 592.293457 696.218567 607.683716 657.267395 767.608582 759.994446 488.968170 490.115967 841.307617 793.949890 691.736206 847.892212 845.717773 836.510010 720.702393 928.065552 629.808838 552.797302 672.540405 717.690918 494.700653 817.215271 455.653229 714.896179 672.065613 700.939087 706.652527 563.411682 576.387024 874.408447 666.507324 842.590271 682.873840 886.131653 867.614685 962.578552 526.917542 646.868530 1014.288391 758.170349 857.697571 750.511658 1022.624207 697.576294 751.470581 625.779785 943.961548 793.060608 881.034363 872.737244 870.236511 690.558899 691.800903 917.416260 875.007324 991.811523 1032.134888 742.815063 932.441162 840.044739 738.696960 1038.057861 896.813782 707.292542 716.434998 644.234314 857.025269 780.704590 703.902039 688.197266 1069.712158 703.627197 780.000854 637.332642 910.052612 675.367798 799.290771 900.968689 765.209961 730.167908 507.788727 826.453491 890.650085 876.503357 627.984009 585.779968 682.242249 723.516907 846.993164 798.178162 541.083984 805.211304 678.735962
conv_43_param_0 146.929382 152.139725 135.988586 173.029510 170.658218 136.976242 208.295517 124.535110 109.477943 152.801758 103.148712 175.823120 107.724472 100.843376 125.934151 160.530106 105.350807 131.484879 107.890320 131.090454 148.780090 127.394165 162.287567 190.535553 126.914902 175.987411 156.898666 146.729721 113.463669 125.446083 101.959267 181.169434
conv_44_param_0 97.459663 129.506134 119.001106 97.827461 111.669571 109.063782 121.720947 126.591904 136.524216 117.996750 125.421318 104.774643 92.251717 105.050789 142.211777 113.381905 117.471069 111.070435 112.077286 102.736618 118.287201 97.676315 126.793144 118.311378 124.959396 133.495499 106.629005 93.219101 98.507744 113.244522 103.444962 122.616119 130.464493 111.216408 126.807289 81.911102 116.989426 146.770020 138.391846 115.061989 90.399109 113.767670 101.803123 82.976112 109.626938 101.540451 95.199585 121.242783 96.467522 127.525360 87.508636 100.144043 146.675262 89.102455 109.253738 100.258598 124.542938 117.831291 111.729485 102.527748 113.311974 115.706520 102.598557 123.081726
conv_45_param_0 429.113190 475.243652 463.756836 575.735657 438.132935 618.841492 463.326996 397.657288 520.183228 437.992401 550.134155 658.865845 446.837189 466.282532 439.020081 398.678406 486.173828 549.114319 523.560791 515.571716 502.788544 414.940521 362.301544 338.457733 384.425507 510.725983 427.280029 638.971130 488.309998 556.226196 535.456787 447.862915 467.023285 408.533020 431.223114 504.945740 480.800507 486.787842 366.641418 416.480164 372.082611 677.235657 449.038849 433.625916 419.140747 435.954987 479.662170 481.170105 404.240814 323.254578 529.281067 552.403687 468.515198 580.766724 368.994934 534.738220 565.247375 539.422607 364.850922 395.534515 486.459259 334.360413 415.166046 424.225220 403.059937 428.643890 594.475830 393.526611 550.345886 448.788696 480.228027 553.861023 486.033661 499.672852 665.372253 523.821106 561.239624 408.779114 561.056702 543.082642 543.779663 542.389587 489.198242 564.422302 447.783905 512.632568 454.499176 333.238770 481.859131 440.160980 474.321320 474.076538 322.859802 592.198792 530.020691 493.541840 393.679291 417.075592 356.233521 495.795258 383.277740 375.276245 515.309326 614.286682 582.533875 547.174744 465.128693 492.637054 460.300323 404.033569 495.978638 516.729248 512.363586 347.765869 379.726379 531.510986 444.516174 450.046692 546.010071 620.379456 474.420959 439.499023 594.962708 536.336792 657.799194 413.077271 420.170837 388.455750
conv_46_param_0 664.999268 595.052979 571.458923 602.557678 460.278290 408.094360 398.081940 606.253784 548.049683 683.930725 425.762360 560.917480 477.353485 482.491028 339.135834 655.015076 461.648376 526.711182 316.681061 292.368469 441.343079 515.501831 618.081238 441.228851 535.038208 485.910797 459.005829 615.963562 712.728394 514.465881 506.127258 690.864685 1068.098145 621.975342 886.963989 856.050232 927.155151 716.656982 576.296509 628.223938 994.981750 572.848267 373.857574 706.454529 1024.047485 701.356628 978.514038 880.061890 1244.410767 578.818909 843.263184 963.762329 590.131104 760.482605 911.095032 694.107544 956.380249 941.087341 767.582031 1190.367554 667.596985 1290.058960 977.036987 466.892395
conv_47_param_0 98.967995 134.070328 127.710304 142.683823 91.609772 113.948822 61.517933 112.287430 93.714836 121.067047 108.841095 84.914597 62.857506 98.357925 89.261345 59.717106
conv_48_param_0 54.976124 67.483566 74.622879 58.262608 55.403511 87.368431 63.962269 80.331764 61.520100 68.346077 75.345802 69.891006 45.555969 60.809273 70.755623 68.653374 62.794537 44.854172 72.698463 41.685360 78.216843 36.813942 94.165619 57.413212 93.086525 82.966499 65.529274 39.563927 92.776573 75.157959 44.626709 70.176247
conv_49_param_0 360.691772 312.260925 258.130035 382.627502 301.331451 336.079193 400.689728 410.424408 478.673279 346.124420 388.305573 419.210846 346.768463 531.538391 315.339233 472.124817 390.491028 319.823395 354.329224 445.164917 268.044403 497.241730 617.337341 396.779602 328.877747 382.402069 405.576019 362.627319 337.478088 375.315796 420.188904 423.066650 316.383240 287.465851 427.069336 351.957916 553.869507 210.376816 312.417084 485.637360 382.618439 451.466156 681.169067 412.787476 294.763031 278.923401 239.769669 528.621277 432.934601 392.261963 402.802612 474.474426 321.808594 403.229584 288.086975 526.030090 507.941376 339.558716 357.697632 388.736237 287.037811 388.293915 430.164490 416.335876
conv_50_param_0 951.583740 1057.740479 1090.755859 1041.836182 777.569702 966.772156 910.496704 1122.903564 966.932434 1218.491577 975.191650 1108.170044 1173.464722 1146.253052 990.798035 947.644714 1361.533447 1081.877563 912.228455 1302.395630 793.682800 1140.090332 1186.390137 859.871887 732.246399 1030.294189 829.440552 737.776001 959.515869 1254.875122 847.922729 1542.409424 1202.949707 1076.404419 764.888062 838.636719 1122.507324 1285.068481 1786.532715 989.007263 1347.805542 1044.466675 921.391968 1156.253418 656.590576 1384.075928 978.756409 867.140930 1023.739624 931.143555 935.731506 623.752075 742.648254 816.586243 897.976624 958.679504 792.206482 1322.082764 842.754883 1351.676514 1152.114014 1194.720825 1214.322632 1029.306274
conv_51_param_0 577.491089 691.350586 640.252014 603.548523 743.794250 534.667480 494.751251 621.476074 546.482788 584.646973 540.692871 519.389954 879.793335 602.025208 599.921570 556.395630 730.147949 543.834106 489.031464 647.513000 424.579681 603.039429 565.492737 786.493103 662.055969 624.230347 571.005981 644.552673 746.982422 591.854553 467.937195 497.438080 723.026245 524.520386 815.956604 610.757263 563.696045 558.022644 637.221497 599.497925 487.300690 624.482605 585.316101 565.722656 576.846985 504.456482 821.105713 632.050903 610.133179 659.189331 659.614502 499.820068 551.820190 476.175568 593.665100 586.789246 582.561035 666.508301 478.941040 548.700562 587.000427 620.598022 660.590332 603.348633 545.546875 534.494202 690.523254 553.665039 490.779938 480.219299 493.434662 519.943481 434.881134 640.077576 525.334656 628.068909 649.723633 611.845886 565.663635 680.678223 616.463379 546.551758 562.952271 697.288452 521.656189 563.855469 631.643005 670.808594 795.911011 541.308838 659.641296 529.611755 706.704712 822.747742 453.269989 611.436340 548.862671 694.321167 697.743713 501.799622 690.514587 442.677795 656.521240 589.954956 661.740356 686.986816 721.624084 489.142822 603.779175 503.602905 543.130005 649.820251 507.830811 381.437347 493.531891 499.653992 517.070435 653.180054 617.233826 581.832092 507.879883 679.425354 420.821320 817.377197 506.069092 434.946686 478.078217 543.320679
conv_52_param_0 294.434967 321.027191 223.998032 126.154060 239.352905 278.914307 241.233002 252.126923 270.618103 203.393936 321.980499 227.577911 185.146011 129.979675 197.126312 213.576218 200.504700 248.829544 181.450562 196.982147 257.475189 193.199142 263.516449 243.226685 296.275269 235.970917 179.367813 250.348648 259.243774 219.457886 206.452606 150.987610
conv_53_param_0 100.343315 154.413254 164.905884 128.480164 149.662506 196.821167 133.153549 145.496368 149.143600 129.357788 137.461349 126.214951 159.103210 117.229004 224.371933 135.587814 164.552719 204.620071 158.035004 128.668396 100.737038 139.645508 133.168381 139.551300 95.653793 113.714272 127.181381 105.290031 114.161736 142.274017 100.450615 110.283035 156.167511 199.202103 145.585556 244.371979 195.746979 116.637520 154.053528 149.911072 149.640839 127.432045 188.776917 183.288376 149.713486 161.965164 169.246872 152.388077 115.798531 115.453560 152.391678 139.831848 122.861694 181.675400 132.793686 159.697083 128.513565 134.608109 119.740265 126.589005 258.282745 152.439789 215.248947 183.441193
conv_54_param_0 630.671875 638.078125 639.983826 667.685730 649.342224 595.373352 784.976685 725.064453 746.225586 871.202271 540.085205 721.763062 691.050293 809.123596 701.428528 769.075439 696.469910 506.121857 695.089844 795.298401 806.771240 645.236389 903.126892 482.524567 579.008423 822.481262 691.810791 570.807495 681.375854 963.477051 575.891296 562.802612 801.101196 848.275757 549.526978 906.459778 895.692566 784.799561 556.415527 521.248657 795.243713 800.609375 912.018799 613.908875 646.329529 1086.914673 471.771912 495.663483 715.694763 787.427429 573.036560 648.870117 849.600891 868.279907 682.418579 988.058838 708.431641 524.236206 791.374634 549.512390 481.158875 751.377380 690.050964 703.024414 798.979919 890.316345 617.427856 553.909912 494.998383 799.590881 720.554382 606.674500 707.301880 680.202148 454.880249 632.572754 707.234985 597.691406 594.207458 676.174988 1028.072266 599.176575 571.811829 676.096375 695.132568 586.577515 655.316589 813.557251 679.474121 819.452332 515.030762 791.120483 779.390259 607.511047 779.279114 814.200256 684.920227 658.417053 623.586609 712.997742 1044.726318 576.629639 748.294373 759.963318 449.682098 636.868469 623.122925 683.447388 603.794800 503.550262 768.181885 567.438110 509.502228 602.102112 601.898315 660.113586 647.354980 805.136353 703.568237 592.164185 672.276672 575.966248 686.186218 767.838440 669.250122 766.222534 782.500000 901.848267
conv_55_param_0 1860.477173 1135.576050 1732.977539 1299.296509 1670.403687 1544.302490 1452.536621 1474.503784 1439.768921 1578.747681 1364.412842 1979.453247 1424.819824 1273.261963 1595.268066 1246.125977 1479.146118 1242.421265 1447.392822 1155.011230 1300.459351 1446.845459 1454.560791 1514.030151 1673.569458 1503.061401 1214.729492 1398.401978 1344.771240 1449.592651 1465.918823 1825.433472 1532.561890 1516.950562 1700.452271 1329.122314 1653.407227 1288.575928 1847.463135 1287.906982 1700.360352 1713.536133 1228.010010 1533.898438 1249.819580 1183.250488 1582.385132 1428.076172 1083.390991 1445.869995 1453.045776 1435.378296 1426.517212 1321.675049 1393.617065 1470.821289 1326.845337 1251.986084 1390.069702 1316.568115 1640.560791 1291.248779 1505.706909 1471.080444 1599.060913 1468.073853 1694.363770 1640.148682 1388.866699 1469.921143 1513.980713 1457.568604 1750.379883 1312.538330 1570.812988 1324.330200 2098.922852 1634.197998 1313.988647 1509.485596 1388.010620 1406.865479 1379.377319 1325.813965 1777.050171 1534.915894 1532.637451 1578.112915 1845.592407 1264.550903 1446.671753 1585.783447 1614.545532 1810.286743 2167.718994 1374.140747 1594.150757 1706.129517 1260.575317 1647.504272 1504.655640 1419.573608 1380.844482 1402.462036 1790.470459 1631.839478 1795.966187 1345.723877 1404.328735 1478.290649 1113.210815 1167.393555 1651.118164 1474.605225 1967.876709 1207.372314 1543.046631 1150.742554 1246.390991 1718.395996 1255.383545 1165.129761 1472.469360 1240.393555 1255.881104 1591.572510 1377.558716 1428.444336
conv_56_param_0 702.301270 767.651794 766.742798 928.639282 723.994690 856.018127 757.193970 903.936707 759.931396 719.887085 720.084290 875.297302 694.115784 736.272888 850.105347 880.977966 665.601929 826.791809 783.778320 839.658386 777.452087 853.150757 847.929321 914.471375 799.254333 947.521484 722.707642 1000.900024 736.264771 854.271057 745.880981 710.855957 901.627747 865.521851 717.395630 827.083862 877.109253 851.869263 788.409912 908.688904 765.976074 874.390320 858.255798 915.721497 838.417908 947.337463 851.279114 777.066833 832.542419 854.836914 900.458435 796.265747 1020.898438 988.779663 846.957764 1098.067139 1047.544312 754.937012 865.382324 831.166443 821.246277 1002.114502 826.625854 912.120605 878.916199 876.927124 898.899902 913.566406 839.927734 824.942566 912.944519 777.084351 894.934082 653.098328 750.701233 796.514771 702.021118 942.645203 956.857300 968.564209 730.389587 797.247681 863.753723 797.371216 776.661499 845.614929 742.596985 625.388367 755.781799 823.404785 925.713074 986.520386 799.801392 807.175049 802.207214 908.784790 931.947510 775.089417 731.182251 762.062378 720.775574 795.209412 811.988464 763.057251 742.997559 714.323730 760.308350 772.385864 726.191406 722.147034 836.801086 899.863586 897.227600 981.321228 746.084595 863.601807 903.412292 780.047119 904.653687 979.661011 918.406677 785.241150 830.959595 837.017822 806.829651 877.305603 809.854309 856.517517 849.995056 754.706360 1084.428345 969.455322 909.589172 881.245422 907.873840 924.111755 737.661926 1037.627441 777.107849 964.822571 978.156677 738.490723 834.114014 838.010315 791.094055 802.375610 873.203491 957.400757 975.956787 686.025940 765.853455 861.702271 977.127625 873.965637 852.064270 847.982117 727.125122 836.413208 825.825256 877.524292 887.247864 846.247131 831.778015 984.859741 922.928528 762.846924 909.083496 814.448975 834.570374 930.528503 717.205017 837.391174 834.671753 806.685181 967.411621 952.483337 1179.892578 949.471741 827.342590 917.554932 730.054504 778.216064 733.047485 926.940491 772.572083 858.448730 828.639160 894.992065 910.341003 809.583008 794.792908 792.782227 869.438171 890.201111 894.429810 721.292053 811.504333 844.328979 765.095642 824.629700 836.630615 818.484314 852.125183 825.907654 901.031982 850.584229 957.395630 850.450928 883.932861 761.692993 703.257507 904.277832 940.207825 844.351990 926.596008 887.030762 941.505676 685.199585 712.639160 764.003235 1037.821411 823.171509 883.483032 796.768921 952.345703 704.764221 912.089172 985.589478 907.035889 880.796265 1144.307007 819.148010 872.844604 834.842896 916.148987 808.078186 871.616211 787.021912 888.313660 711.792480 899.122070 884.992676 777.321167 915.054260 956.568115 936.528076 872.294556 867.294922 749.680542 755.109619 857.503052 942.321777 745.633667 737.308960 749.014648 727.797485
conv_57_param_0 619.466614 483.474274 459.150940 475.310333 567.898132 420.073578 619.834412 503.779144 451.910187 583.581299 544.279236 605.236206 554.225464 416.784637 521.317566 480.049225 471.133331 436.641907 453.037262 503.649231 505.038025 499.037781 501.226654 446.819153 484.139679 469.839142 409.600739 587.036743 431.914215 465.876434 446.244171 473.519684 373.623260 418.951904 515.945312 538.541504 477.474213 535.161804 561.046875 462.059418 490.116089 546.126038 656.532776 500.757324 454.385101 481.652222 573.142151 480.279510 433.942352 527.735962 669.134460 461.678741 622.307434 431.482605 545.475708 618.498657 488.666840 472.483154 532.614441 567.300354 493.336304 493.393127 588.184021 429.234344
conv_58_param_0 225.592621 309.428040 252.672028 239.579727 225.686401 271.618744 265.234283 235.448196 206.950073 274.435333 248.577362 210.837891 214.876907 203.827438 222.552155 224.356735 220.029297 235.665894 280.985443 244.908249 210.272781 210.380463 232.737381 214.463379 317.067688 211.204102 223.036316 235.768707 208.844223 241.527466 250.422211 225.875992 227.115372 229.196686 227.225037 219.263596 275.021942 281.662903 222.957047 275.201202 251.056961 224.275696 217.868790 235.398483 211.968536 293.848480 237.639633 231.809891 236.444168 257.615967 308.307159 218.183243 196.425232 284.425049 275.644043 220.811813 228.184448 225.864334 277.578003 238.979385 230.799042 254.709335 237.485214 248.470001
conv_59_param_0 225.000107 240.752136 221.479752 265.597992 273.194214 270.906982 223.097672 222.957047 241.757019 284.637878 214.629654 230.719437 255.540680 210.559799 257.875549 264.651581 217.222488 238.746368 271.060303 272.969727 280.672699 244.643188 232.174942 286.860260 227.937393 242.432068 233.628464 317.397003 280.893921 264.846130 268.437164 213.314774 263.564209 222.903091 258.146973 331.067078 282.975037 242.992599 274.240997 226.919724 267.245972 209.241608 259.464844 229.668488 253.077988 264.459961 249.723450 221.932785 205.334763 243.387100 320.463440 226.389389 254.601715 280.891418 217.579605 224.599640 225.844406 238.408127 228.130005 245.343216 258.038940 234.542862 306.968292 240.284439
conv_60_param_0 360.279419 498.833923 319.604919 392.925293 380.466583 484.107727 301.356171 317.004242 331.661530 372.922119 482.990997 421.714966 450.420471 412.752655 382.127838 338.178009 522.586121 330.608185 513.289612 310.833374 321.346924 305.357208 395.383392 433.008759 344.271912 299.711975 336.403992 383.122833 311.834686 297.612579 324.574554 321.908051 303.300385 324.979858 409.921021 283.915924 341.699585 331.679382 330.101685 272.353363 296.217285 377.668732 290.011108 372.543457 341.698181 351.430176 323.542938 402.512299 296.338226 366.801971 353.505035 319.746429 451.617676 332.713959 338.524353 342.493134 325.815948 362.180817 285.507996 403.466125 331.740082 373.301971 325.099213 325.438507
conv_61_param_0 257.644958 251.410400 261.114777 217.351608 244.422455 242.879288 222.890472 263.848083 331.287048 280.835999 257.228027 285.433685 249.938400 236.932892 241.302139 226.994919 225.023117 237.249893 230.279251 249.322388 394.960480 251.291092 258.556946 222.550415 224.805420 230.755005 224.375443 229.247711 209.273193 207.269730 220.692657 246.433258 214.463028 220.613968 227.404861 274.143646 233.370163 251.658234 266.219910 265.518738 290.253906 276.372742 255.707687 253.006882 228.207275 259.767639 221.021683 252.605026 223.182541 229.362610 275.215881 309.926331 268.260559 251.440323 236.882111 215.887131 217.904999 209.106659 239.427231 254.471878 245.814987 308.019806 235.858841 218.860336
conv_62_param_0 472.592041 511.975830 440.758026 466.461670 470.339630 426.603638 435.639008 476.096954 522.607910 467.797852 438.087799 542.955322 453.169556 401.414886 510.689941 514.234436 492.574677 445.821320 425.219666 482.596161 482.363831 478.083801 521.651917 399.383423 462.265991 452.383881 499.930817 609.389893 520.532166 511.540833 495.254944 492.181580 413.409790 449.701569 488.997559 464.956055 437.662750 468.855896 483.978455 579.274841 440.625061 470.491302 454.770844 359.489288 466.652710 729.004822 381.199707 440.845154 420.465210 436.703094 491.722900 456.815826 470.411011 435.348969 468.035980 446.306915 620.575134 410.399353 563.510864 579.802063 406.398346 498.350525 423.543762 464.810181
conv_63_param_0 605.614197 663.304810 589.380859 911.492493 666.838623 807.991028 576.900757 768.662109 649.971680 692.540833 548.656189 592.155029 825.332031 629.811462 757.472046 586.983765 805.996094 745.309998 757.709351 802.825867 669.262268 628.720337 602.919617 870.177612 772.719421 730.687866 706.484802 693.210510 740.375671 574.695984 624.374023 902.782227 669.511047 558.919617 779.869385 730.622620 703.544312 888.881653 804.670227 577.451965 703.588135 821.829529 713.619080 785.133240 700.044434 651.082581 659.003479 685.776428 808.741394 1266.319702 670.619019 908.732971 742.135132 840.376038 701.485168 698.144714 698.661560 742.338318 631.878601 802.363586 792.583740 621.094543 668.951965 856.170776 726.143433 562.685608 1030.467041 711.657288 750.500916 776.213074 808.508301 589.253357 709.989563 695.180359 571.880005 680.167603 697.591125 818.225159 851.241394 688.121826 1096.484131 746.940674 708.293274 679.528320 592.559875 695.653748 671.045166 708.953430 862.039307 690.926758 667.383911 631.526306 731.606506 721.776245 916.455261 1163.281494 710.803284 704.714600 875.097046 813.863342 516.392090 580.246521 667.998657 754.847107 590.512939 911.130005 613.279724 776.630981 588.509949 796.315063 711.497925 701.401428 734.281006 596.643982 693.346069 958.879456 641.114014 672.715881 728.070068 677.251526 657.777832 767.925476 692.187805 605.213562 578.734131 570.801941 750.925232 631.713135
conv_64_param_0 925.907410 874.409668 752.997009 849.726257 916.836487 754.639099 933.352051 1083.219727 834.858337 878.345520 842.502075 1020.367981 934.403137 777.071594 883.178162 795.724548 784.575684 784.798950 929.301086 741.356201 752.879700 880.701660 881.696594 774.189331 749.315674 731.607666 1325.951050 869.515442 818.275513 837.020935 917.309448 911.475830 1096.788208 905.719177 986.693298 905.790039 779.014954 799.890930 855.886047 940.198547 752.436157 751.154053 1094.560669 855.545959 807.983032 806.620178 1033.604614 1070.970459 905.256348 788.880310 825.972839 863.115723 983.348267 851.956360 724.050903 1209.712402 776.496887 952.657104 1455.464966 1002.581238 785.312866 989.650391 787.951904 946.244751 1283.522583 707.498535 908.008728 1083.742798 860.517883 1112.491089 794.896057 1005.233948 1150.325562 786.456726 699.327087 1116.043213 781.010315 1186.951538 795.388306 780.027832 804.411621 920.723572 754.467468 853.585388 797.108948 853.024353 822.814697 1189.953247 1074.066772 792.196350 816.873474 990.757385 803.432800 804.584351 747.880188 961.329224 1185.958252 987.262268 793.713867 700.222961 856.806152 1145.639038 793.937744 877.763977 761.599854 806.207031 1111.563477 1019.129089 939.822327 1027.065796 794.380615 927.235962 797.247681 894.293884 699.900635 757.521240 952.225403 938.834351 811.903931 925.772034 939.477478 900.220398 935.636475 826.608765 1101.893677 979.303955 854.974976 741.148499 972.917297 855.949097 886.624451 750.946716 720.559692 701.721741 760.839233 917.500305 1119.560669 1274.173950 1091.823975 724.220276 818.094727 793.297852 844.017212 879.033203 813.803101 825.002014 837.289978 860.791321 854.781860 936.648682 804.662231 830.512939 799.485718 703.823303 766.602600 1085.870483 1006.466492 741.127075 868.391113 679.676819 805.831238 853.787231 730.250427 802.031677 843.403076 742.790039 1122.761353 942.321777 975.344055 896.989624 1026.123169 942.677612 853.515930 823.648254 1396.248413 1066.253052 724.061340 799.249573 755.764587 790.076965 1062.600342 789.554871 1021.296997 858.210815 1031.347168 807.879089 862.957275 784.725464 1214.322998 734.437988 784.386169 854.646240 862.178040 771.510071 1000.310852 903.812134 1425.364502 781.802612 1011.433777 873.389221 838.043457 985.199463 800.910095 803.036194 843.252441 1037.953857 899.433289 995.816833 788.059143 701.580200 837.016907 841.879211 757.559326 887.625061 781.424316 925.255249 816.662781 753.788818 921.903137 1110.957886 816.689819 933.831787 1195.939941 737.324280 865.005615 906.597961 771.909729 998.773499 1072.851562 899.089355 832.839539 1293.262085 791.019287 779.039490 831.992432 1011.052490 979.463928 850.672363 932.568848 816.779541 824.004211 859.274414 846.110168 776.299561 749.574829 895.977112 872.195312 812.414673 983.173096 715.882385 714.981384 758.494324 1012.335205 829.014832 884.237488 868.897461
conv_65_param_0 130.792389 267.308685 218.696350 181.974319 164.287201 530.860718 141.659821 163.199387 212.492249 209.953369 335.394135 137.005203 286.446930 129.897354 291.309723 157.569077 153.809784 337.811310 123.928970 199.543762 220.158081 265.784698 142.865707 158.392014 199.276016 260.303406 234.797150 157.810211 193.774277 222.455338 146.391632 140.720016 217.116913 141.246292 131.189880 203.298767 169.242722 173.962173 177.260818 196.783066 228.393326 177.327393 267.237823 117.953842 195.978470 93.845901 189.869568 208.396530 295.669312 123.177612 262.198120 166.778137 336.093811 144.461227 147.773590 291.603088 297.658142 195.210800 223.705978 88.838066 202.964020 265.467499 150.242874 97.772385
conv_66_param_0 414.417419 334.223267 124.929428 130.573151 151.811905 91.184212 161.013062 139.347549 166.294830 266.815796 116.150169 222.687317 112.779823 237.609177 105.904411 190.985458 257.457764 270.915741 117.669815 215.221146 210.316727 115.810265 104.524681 295.168701 68.466560 121.820419 227.020569 155.793686 189.843811 148.339142 381.522491 177.327545 341.922211 99.506699 227.497345 426.012421 178.504440 139.473938 156.744583 139.877411 70.069496 173.570633 325.938110 71.154137 435.262909 263.676056 303.180389 85.826668 80.883316 201.291489 183.438736 114.265358 120.751045 191.077530 110.883926 127.685204 153.477448 159.413010 293.180298 319.209900 389.018921 107.753616 173.782211 234.675629
#conv_67_param_0 116.114288 137.762711 173.397339 197.641342 153.811951 224.996536 209.080383 183.295273 219.120468 315.842133 486.160736 471.615601 437.872040 811.531982 734.215942 770.654785 131.229065 176.575699 173.281815 141.126419 193.956741 143.778885 204.638870 246.303024 230.786163 266.219025 289.156189 347.026031 376.133057 402.625397 757.745056 597.921814 147.781815 162.154617 151.394638 164.202026 224.027557 254.000000 191.811203 178.270050 246.303024 422.920319 452.340881 447.284607 616.341248 847.908691 757.745056 940.672668 141.433380 157.729538 138.348938 149.308838 194.828461 167.156815 165.877548 144.578094 189.436264 249.852066 259.836151 415.157227 657.223022 915.830994 765.551147 819.845520
conv_68_param_0 374.153015 196.121857 329.722656 363.420990 373.083740 402.923920 412.241119 329.119446 356.618927 295.235626 364.740936 414.502380 398.033020 326.258728 357.921783 281.757446 477.542999 342.965332 277.821777 363.419861 397.571411 323.336578 290.975708 356.993652 333.575073 501.596039 268.797821 464.651184 160.894928 406.276184 286.256500 249.061996 242.540604 432.143463 321.813934 412.983337 328.175110 488.599670 504.780670 341.994507 315.460114 425.612976 601.085449 215.516907 310.780457 304.851318 457.860046 330.368896 257.854706 449.413971 284.906891 328.124176 412.063324 397.813751 281.086456 345.341400 347.917053 325.282928 255.200058 311.353058 389.565460 466.814728 245.593231 287.991486
conv_69_param_0 327.096588 265.417938 215.271194 288.210602 292.035645 376.530334 343.740936 296.674133 134.839630 422.603027 314.436279 293.723358 278.640594 370.153229 378.164551 375.965057 225.375748 176.068741 311.218506 330.558228 355.530396 383.294464 305.707977 300.787231 338.016388 330.021210 333.328918 289.259369 271.940094 396.586792 405.840515 418.655975 217.210220 325.325409 265.298523 337.462341 376.130096 358.813171 346.383057 322.146118 311.834076 225.440781 374.736603 284.625916 252.540939 323.274200 312.172760 261.308807 327.769501 273.998260 254.084000 322.770508 222.987427 292.349609 303.201355 333.101257 263.719513 396.670593 296.924744 353.257263 253.573212 225.702026 381.818848 308.111511
#conv_70_param_0 1211.862549 1295.621460 935.597107 847.218262 689.452637 738.384644 729.070801 813.435486 745.794983 890.739746 1305.375122 1350.271240 1161.142822 1280.472656 1182.926636 1146.428711 1202.756104 1238.552368 960.650024 738.909119 655.566467 598.265686 525.977783 868.434082 621.867310 804.006165 1321.122559 1338.975586 1143.279175 1101.518311 1148.960815 1007.148132 995.582764 895.339050 632.836975 575.115540 675.135620 950.990845 794.792969 639.449280 1146.428711 1248.960327 1053.020264 1258.021729 1238.552368 1157.268066 1096.295044 1229.768311 1116.291870 1341.565430 832.307190 698.713257 728.050415 776.985840 716.517883 774.095215 667.768921 1132.082642 1285.218018 1251.966309 1112.710205 1039.864014 1208.343750 1221.108032
conv_71_param_0 447.346100 427.878815 478.534302 481.645386 472.952881 479.688904 486.445374 536.417603 449.320312 513.874817 473.864655 444.617249 563.574463 452.265472 431.483673 477.376923 584.391968 426.064941 444.741669 429.443298 500.790100 546.633057 430.713745 422.413910 483.708435 434.472076 432.401428 433.041840 415.281860 467.387634 586.282104 613.429321 432.913818 497.465210 431.483673 433.147156 590.606506 448.210876 428.395660 466.238190 411.131622 429.427490 426.194794 478.880951 453.423706 461.827301 485.990234 418.466675 437.088318 522.693970 469.195129 469.666443 445.487335 496.574829 497.709229 415.947388 467.624725 450.058411 588.166199 453.487000 458.407806 403.114899 534.144043 432.891632
conv_72_param_0 219.604141 223.363693 218.891205 232.147141 222.392609 225.887955 236.157593 246.178741 286.148285 263.143341 231.093262 231.153091 259.354004 284.678833 251.182205 216.980270 232.382935 211.928772 252.096085 262.791504 263.737091 225.574905 257.661865 278.131683 246.302521 254.511917 242.424240 240.352646 244.583542 227.565857 214.023392 292.754181 229.459625 216.956375 310.373413 211.275299 267.633392 235.775986 245.947571 236.932327 246.729797 220.092850 228.454697 234.699585 243.223251 232.044739 232.564575 228.509735 237.483673 251.462936 356.130249 240.777298 270.876831 236.008148 238.254929 236.827072 250.063477 200.644653 208.700577 276.872864 234.758621 242.881073 216.992020 267.204681
#conv_73_param_0 1311.132935 1306.194580 1300.479980 1405.924316 1310.307251 1301.293335 1347.647705 1327.020386 1310.307251 1315.276855 1325.329956 1319.447021 1311.959595 1339.837769 1320.284302 1303.739380 1301.293335 1348.521118 1306.194580 1338.975586 1301.293335 1307.836548 1359.979126 1303.739380 1306.194580 1338.975586 1339.837769 1300.479980 1323.643799 1332.971191 1330.414307 1302.107666 1341.565430 1302.107666 1308.659180 1362.651001 1302.922974 1301.293335 1331.265503 1321.122559 1310.307251 1327.020386 1313.616211 1304.556763 1369.827515 1322.802246 1302.107666 1302.922974 1320.284302 1306.194580 1328.715210 1328.715210 1357.317627 1300.479980 1336.395630 1340.701050 1323.643799 1311.132935 1300.479980 1302.922974 1310.307251 1314.446045 1303.739380 1301.293335
convdw_183_param_0 154.717697 149.845718 122.972076 121.295349 94.843948 183.146072 116.639999 135.331970 127.306664 108.213936 79.786400 305.606750 175.075806 225.971558 157.042999 210.827332 129.048218 117.408783 143.004059 130.925308 123.945641 204.151978 63.879017 82.882988 188.732010 217.846359 203.854111 101.422058 145.211853 224.156616 229.060211 129.923370 121.082817 121.581146 129.575287 185.169266 156.834366 229.339264 92.745171 88.236969 118.178558 125.030365 161.100098 205.114243 182.414795 193.432983 89.219887 130.598495 150.530792 126.933540 101.850327 174.960556 168.074432 146.913925 113.578491 142.878662 67.367432 156.753799 144.233215 142.789978 94.013954 147.615509 122.092407 83.054504
conv_74_param_0 885.298706 419.666626 233.579102 325.236267 378.465118 168.814133 400.185608 410.986084 342.986847 337.275360 745.838745 346.162720 359.707520 302.994965 265.067841 467.674316 323.812042 304.078094 259.155762 269.243256 294.609924 326.258209 204.092056 632.883667 572.691406 493.147156 263.156494 327.991394 397.488922 315.569946 366.803711 267.624268 230.800858 285.901489 429.486786 344.521423 271.390503 495.904419 321.103027 552.830505 369.747192 644.978027 252.643173 292.311157 561.712830 197.593430 405.286011 360.190704 286.837616 127.445145 414.961761 271.536713 456.167267 458.389648 208.690201 408.624054 205.681198 246.183853 376.671265 391.565613 429.605988 221.837601 359.379028 358.135498
convdw_184_param_0 59.402508 136.435013 181.989059 149.960114 112.958122 91.925247 104.377792 143.395584 202.201889 307.719940 54.031433 160.611877 168.773972 379.348572 96.848152 72.643967 126.824989 86.495514 342.921600 84.812775 219.677109 123.897324 244.986816 310.357208 122.788658 199.554688 183.396744 186.208817 261.645813 249.340973 89.579590 158.778122 531.635681 119.964310 81.680000 180.203690 221.570206 122.617760 76.291046 122.426109 179.412476 85.670715 255.884552 242.187302 161.058029 191.336685 401.238281 257.529236 91.680153 273.011688 111.939117 428.401520 152.466599 134.000717 321.537811 158.275513 327.253204 74.228256 177.510284 301.731689 149.533234 142.249161 283.030121 69.269180
conv_75_param_0 278.476135 153.207993 183.359375 213.863861 340.961456 326.327881 176.356873 333.018463 696.779297 229.682922 241.403992 291.528870 201.443329 256.366028 172.154678 302.347717 550.372620 330.717804 176.547913 638.135437 770.124084 310.969116 179.683426 207.405548 416.027771 294.384369 683.749878 261.517792 424.620331 401.099457 223.729126 503.161774 492.092224 468.578156 472.125549 215.913452 235.470139 249.396133 144.843552 313.381561 301.265381 323.397827 252.269638 163.194122 171.594986 279.675934 246.341156 551.737610 351.643097 489.451599 219.819702 245.201813 234.514664 205.331039 241.586258 229.371323 253.596481 175.301178 171.000046 261.923492 245.563736 214.058929 281.932068 185.379913
#conv_76_param_0 178.637360 163.069595 186.984909 169.997391 310.192017
convdw_185_param_0 98.057274 147.459778 217.362793 89.542603 198.209534 118.348015 78.005768 213.153091 104.582146 83.501900 100.386086 172.708237 101.991173 212.828445 103.412285 133.889359 96.275551 94.681709 87.950958 127.952995 68.578873 99.577850 85.513725 98.700462 155.377579 159.161606 126.658195 95.798584 136.870422 64.723312 227.510986 126.005104 100.611946 208.857224 174.391556 98.512703 95.077225 120.871323 169.970581 149.878647 133.908234 78.482079 112.737030 69.798080 160.069809 60.446697 277.940918 229.545807 163.150986 46.500294 93.464836 80.240532 74.371574 110.566132 124.598923 86.151428 127.763054 171.307755 208.391571 118.658981 105.045479 114.084312 162.939163 167.978485 108.570831 64.643768 164.699036 95.566246 96.059921 162.869278 106.694000 63.839497 170.983719 154.364700 132.039764 148.636368 154.725662 106.413582 183.733017 147.430191 74.486092 251.692123 109.056534 208.115067 151.426590 182.600525 164.397537 124.729645 103.211685 154.746872 116.334671 68.722122 175.650497 237.466797 128.325409 71.700691 85.306519 144.122925 73.989944 189.414215 66.222130 157.377670 77.064766 154.350876 126.267006 90.439369 101.552361 129.013290 144.844315 108.250740 98.629837 94.298912 74.102394 134.916473 164.815552 97.793556 239.231415 165.479172 57.054756 176.516861 160.798141 211.050949 153.161743 95.471199 92.399544 67.858322 126.432739 229.567703
conv_77_param_0 510.605804 552.235596 732.901978 326.418457 643.036499 478.257477 639.735046 665.666260 551.853638 599.981079 701.567444 577.989624 442.269379 409.190857 534.131165 391.866455 528.837036 402.828888 527.296997 661.135986 603.756714 349.017517 642.553711 490.896301 479.736664 581.267822 543.794983 473.509003 617.801880 470.492401 528.461182 530.878784 554.050720 340.609375 457.525879 522.069336 636.481323 535.282288 577.875122 642.535706 428.098541 508.619354 536.284241 494.288452 464.988831 578.308350 535.247742 737.476990 586.596069 528.381531 584.971191 496.155182 588.830566 609.544006 454.525970 514.500305 493.615112 462.800842 639.614685 382.112000 600.035095 544.449036 459.338745 605.692871
convdw_186_param_0 143.368225 259.583618 57.129040 182.656921 82.331444 159.051346 121.950401 169.079681 182.856659 159.234024 141.400665 232.832520 164.707123 213.874420 135.504181 105.395332 244.301239 122.979599 101.861061 84.946999 140.880005 213.256470 236.007874 144.078583 157.660538 127.789757 81.168068 95.770386 160.484924 201.789810 137.559982 92.275673 209.392395 155.357803 147.466309 213.473129 124.410698 67.229477 97.373871 121.393288 122.270660 148.256516 117.964516 138.718216 162.870392 171.421555 269.374084 174.311478 143.207001 110.284004 163.699188 110.281670 76.860191 118.094910 148.893570 143.259216 88.989960 116.404945 144.174667 216.368927 123.685532 105.636292 151.715225 121.923492
conv_78_param_0 359.856079 269.138977 452.213898 297.225189 265.461578 313.007690 273.095337 302.956940 225.242783 373.561890 300.479523 380.055176 379.603699 271.538788 255.428055 310.397583 310.854889 269.356262 326.703430 379.232635 422.022858 217.276779 298.898193 338.881012 292.885468 386.376465 299.290710 366.049561 429.389923 408.549744 410.935638 342.712708 312.582672 416.651581 272.419220 337.713654 361.506714 350.209442 436.116302 497.436768 399.633942 304.332886 305.156433 306.858398 395.799316 332.304718 287.840729 253.542648 293.135864 466.697784 350.112732 295.033325 290.713074 320.795471 314.333435 279.969543 347.059174 289.907288 255.813202 257.181030 357.031677 274.157410 386.243011 234.461914
#conv_79_param_0 340.217133 266.082855 312.052795 311.865723 286.291687
convdw_187_param_0 389.599579 150.467728 183.318634 124.026985 121.143318 76.726830 149.594101 101.894333 190.297806 155.818451 75.554840 138.173004 124.930618 134.591476 121.474373 121.524330 181.356262 126.365746 159.870789 74.431236 105.945900 97.990685 157.753494 133.323914 136.465927 210.503006 108.763237 112.150528 240.274902 69.679382 84.064964 117.898956 108.640854 107.775703 173.429184 340.503479 144.445221 121.512672 140.848007 97.315094 90.887444 108.620720 146.294678 114.150871 97.303375 137.143066 86.042473 175.832504 228.297485 107.157593 209.746521 117.209679 118.714081 167.449112 116.401733 129.569290 86.969101 124.854950 117.422836 153.549927 90.069649 125.074989 137.785049 121.856552 58.844013 109.269638 52.570957 49.666370 186.272507 75.449364 102.251541 117.660278 111.486839 84.241402 78.631096 93.396843 114.735268 160.076187 93.476257 96.403725 123.916824 102.776749 130.581833 109.304230 210.328842 166.856674 112.031616 64.739738 92.502449 89.610741 118.259377 99.997070 116.928535 76.249176 128.368439 166.885880 147.947617 85.841957 106.804703 93.211395 198.621613 149.945053 143.348633 226.532471 141.222351 129.465729 137.766541 163.863113 108.685310 104.846008 163.719009 235.255234 104.022522 70.687172 102.370605 146.871201 93.375412 109.990715 90.449318 130.610229 92.295296 148.281754 241.891724 114.338394 171.011963 146.274796 121.883141 155.000107 70.993378 104.285606 225.732666 123.583130 116.882973 132.808685 167.533722 112.203293 88.177322 186.560501 297.370605 70.967003 230.411560 122.000061 174.592575 143.682404 78.376373 83.201385 144.797607 127.640373 158.432327 145.669220 131.553268 114.759209 228.530014 121.506958 78.672768 271.200958 59.980274 147.843063 77.150749 139.366852 100.906601 102.527054 105.526604 164.986237 163.489029 92.142143 77.304977 100.199524 122.439774 87.236572 119.016243 158.496323 89.271049 136.855667 161.703964 98.158615 106.234200 104.471733 103.561409 148.697922 115.435867 145.186127 85.810219 167.017334 113.335060 107.571297 300.456085 264.943848 199.974808 136.812866 82.052483 84.750160 120.537529 93.575493 156.391846 152.338318 108.069168 109.192833 169.704605 143.205566 183.870636 107.223701 112.325058 87.288071 158.515121 169.337891 107.360634 93.253525 137.300125 139.999451 104.575729 126.711143 109.397263 264.404633 102.240685 152.810440 125.155342 100.897644 268.630798 142.225250 115.219879 109.201241 92.216820 94.158737 109.035583 109.475281 89.292091 110.569016 131.805466 121.630608 117.417519 194.196533 81.594276 123.552261 125.268204 71.617493 140.847977 106.197403 135.466827 109.907028 173.773285 94.173927 102.534615 193.269608 119.690628 119.512634 101.651451 210.337753 90.561783 161.940567 146.145676 136.312958 69.178108 68.093773 290.191589 113.765518
conv_80_param_0 786.905579 881.610962 810.960815 650.630066 720.640198 992.677002 692.913513 794.203064 703.076172 1311.641235 797.271790 816.308838 811.625183 775.483765 746.062439 1050.831543 839.203186 1148.728149 741.684204 934.560120 681.747986 763.584778 1063.283081 1064.853516 880.812073 731.360474 736.821106 621.041077 683.129272 712.139893 738.067322 912.639648 951.323120 638.681702 671.452576 1023.823608 824.738037 775.181946 932.442505 670.150269 932.917603 863.973083 766.467712 710.800171 922.716187 773.548401 869.299377 871.435242 1024.591553 1114.344360 1014.221008 850.979309 656.566589 810.713928 1025.227173 791.520386 919.308228 902.483398 625.373108 753.424011 938.137939 836.923584 725.367798 724.137451
convdw_188_param_0 175.229462 102.529335 98.067955 266.094208 129.440216 81.079559 89.659889 95.457130 118.525253 92.804176 77.552437 67.563141 101.062157 66.317398 94.511017 104.060593 162.214279 135.126328 137.105011 119.823723 128.683990 139.594437 143.347885 91.391136 216.306458 170.062439 262.614655 136.480347 155.524353 189.138062 138.771439 86.742996 68.909798 129.395584 139.658081 115.550903 119.846992 75.780273 59.136509 82.919792 81.347351 112.006653 92.947159 308.562378 88.555168 105.601700 147.164978 88.401001 89.377380 109.354454 149.008972 138.692581 94.462914 157.563339 222.024811 104.054314 79.479164 146.479874 201.520477 81.040344 74.803299 64.241501 140.729736 133.366226
conv_81_param_0 308.242767 309.599884 282.749237 340.414337 251.390945 352.472351 277.990326 276.016449 317.282959 294.603638 268.103485 364.012939 315.906830 257.006714 253.647461 323.754242 355.880219 237.408981 339.473389 317.197083 325.153137 323.649231 337.345520 258.343536 241.725845 219.826782 265.907166 360.220795 309.331299 313.547058 279.501373 367.359741 274.634857 256.266022 314.663605 297.153046 219.353180 224.126450 314.986450 278.318512 250.216599 198.575119 277.090973 346.658997 321.491486 278.109711 323.691467 311.428680 291.404968 328.996796 413.178467 306.071747 290.281433 330.992615 345.828522 301.991272 354.779602 276.537872 256.005585 323.053406 320.080780 317.640442 244.096176 282.310944
#conv_82_param_0 319.921265 322.100311 360.743408 393.488647 321.901001
#conv_83_param_0 8.466666
conv_3 145.671234
conv_4 38.478943
conv_5 10.133403
conv_6 17.527216
conv_7 27.575771
conv_8 13.969924
conv_9 17.554834
conv_10 21.094378
conv_11 27.845892
conv_12 24.757967
conv_13 17.547844
conv_14 24.513025
conv_15 24.534943
conv_16 24.811504
conv_17 28.430307
conv_18 31.889486
conv_19 17.803988
conv_20 31.760124
conv_21 24.811504
conv_22 17.418034
conv_23 24.837681
conv_24 24.700829
conv_25 28.049112
conv_26 28.186811
conv_27 28.356077
conv_28 32.003017
conv_29 16.026119
conv_30 31.917898
conv_31 28.186811
conv_32 17.508894
conv_33 28.186811
conv_34 31.764820
conv_35 11.372954
conv_36 38.880634
conv_37 39.142761
convdw_182 21.418524
conv_38 20.819172
conv_39 18.774277
conv_40 42.508549
conv_41 24.563423
conv_42 31.747665
conv_43 39.112766
conv_44 31.767658
conv_45 28.273651
conv_46 28.060226
conv_47 31.693977
conv_48 35.313324
conv_49 24.707878
conv_50 28.082680
conv_51 28.323870
conv_52 35.161827
conv_53 31.820227
conv_54 24.432140
conv_55 31.878656
conv_56 34.822800
conv_57 34.981426
conv_58 31.952908
conv_59 28.064589
conv_60 12.467606
conv_61 28.065990
conv_62 34.981426
conv_63 17.291222
conv_64 31.454681
conv_65 28.082680
conv_66 24.477791
conv_67 24.750511
conv_68 31.878656
conv_69 27.982821
conv_70 21.195713
conv_71 28.136234
conv_72 31.766716
conv_73 28.285275
convdw_183 28.082680
conv_74 17.687929
convdw_184 21.194534
conv_75 14.057703
conv_76 20.717106
convdw_185 31.878656
conv_77 17.255547
convdw_186 31.972811
conv_78 24.616631
conv_79 35.347004
convdw_187 28.136234
conv_80 17.583788
convdw_188 27.979012
conv_81 28.105371
conv_82 35.518070
conv_83 193.807648
